{
  "</s>": 0,
  "<unk>": 1,
  ",": 2,
  ".": 3,
  "\u2581the": 4,
  "\u2581\u0939\u0948": 5,
  "\u2581\u0915\u0947": 6,
  "\u2581\u0914\u0930": 7,
  "\u2581of": 8,
  "\u2581\"": 9,
  "\u2581and": 10,
  "\u2581to": 11,
  "\u2581\u092e\u0947\u0902": 12,
  "\u2581\u0964": 13,
  "\u2581\u0938\u0947": 14,
  "\u2581\u0915\u0940": 15,
  "\u2581(": 16,
  ")": 17,
  "\u2581-": 18,
  "\u2581in": 19,
  "\u2581a": 20,
  "\u2581\u0915\u094b": 21,
  "?": 22,
  "s": 23,
  ":": 24,
  "\u2581is": 25,
  "\u2581that": 26,
  "\u2581\u0915\u093f": 27,
  "\u2581you": 28,
  "\u2581\u0939\u0948\u0902": 29,
  "\u2581\u0915\u093e": 30,
  "\u2581\u0924\u094b": 31,
  "'": 32,
  "\u2581\u092a\u0930": 33,
  "\u2581for": 34,
  "\u2581\u0928\u0939\u0940\u0902": 35,
  "\u2581\u0928\u0947": 36,
  "\u2581not": 37,
  "\u2581\u091c\u094b": 38,
  "\u0964": 39,
  "\u2581\u090f\u0915": 40,
  ";": 41,
  "\u2581be": 42,
  "\u2581they": 43,
  "\u2581\u092d\u0940": 44,
  "\u2581\u0935\u0939": 45,
  "\u2581\u0932\u093f\u090f": 46,
  "\u2581will": 47,
  "\u2581with": 48,
  "\u2581it": 49,
  "\u2581": 50,
  "\u2581them": 51,
  "\u2581\u0939\u094b": 52,
  "\u2581I": 53,
  "\u2581have": 54,
  "\u2581are": 55,
  "\u2581God": 56,
  "\u2581\u0939\u0940": 57,
  "!": 58,
  "\u2581his": 59,
  "\u2581\u0928": 60,
  "\u2581who": 61,
  "\u2581\u0905\u092a\u0928\u0947": 62,
  "\u2581he": 63,
  "\u2581\u0915\u0930": 64,
  "\u2581\u092f\u0939": 65,
  "\u2581\u0924\u0941\u092e": 66,
  "\u2581\u0939\u092e": 67,
  "\u2581\u0915\u094d\u092f\u093e": 68,
  "\u2581from": 69,
  "\u2581on": 70,
  "\u2581their": 71,
  "\u2581was": 72,
  "\u2581\u0925\u093e": 73,
  "\u2581as": 74,
  "\u2581we": 75,
  "\u2581\u0915\u093f\u092f\u093e": 76,
  "\u2581\u0935\u0947": 77,
  "\u2581your": 78,
  "\u2581And": 79,
  "-": 80,
  "\u2581The": 81,
  "\u2581\u092f\u0939\u094b\u0935\u093e": 82,
  "\u2581Jehovah": 83,
  "\u094b\u0902": 84,
  "\u2581\u0907\u0938": 85,
  "\u2581\u0915\u0941\u091b": 86,
  "\u2581\u0932\u094b\u0917\u094b\u0902": 87,
  "\u2581He": 88,
  "\u2581\u0932\u094b\u0917": 89,
  "\u2581Allah": 90,
  "\u2581by": 91,
  "\u2581him": 92,
  "\u2581\u0915\u0930\u0928\u0947": 93,
  "\u2581'": 94,
  "\u2581this": 95,
  "\u2581all": 96,
  "\u2581\u092e\u0948\u0902": 97,
  "\u2581\u091c\u092c": 98,
  "\u2581\u0909\u0938": 99,
  "\u2581do": 100,
  "\u2581We": 101,
  "\u2581[": 102,
  "\u2581\u0909\u0938\u0915\u0947": 103,
  "\u2581what": 104,
  "\u2581or": 105,
  "\u2581\u092b\u093f\u0930": 106,
  "\u2581\u0915\u0930\u0924\u0947": 107,
  "\u2581those": 108,
  "\u2581\u0915\u094b\u0908": 109,
  "\u2581\u0935\u0930": 110,
  "\u2581\u0938\u093e\u0925": 111,
  "\u2581\u0917\u092f\u093e": 112,
  "\u2581\u0925\u0947": 113,
  "\u2581has": 114,
  "\u2581when": 115,
  "\u2581were": 116,
  "\u2581\u0909\u0928\u0915\u0947": 117,
  "\u2581\u092a\u0930\u092e\u0947\u0936\u094d": 118,
  "\u2581us": 119,
  "\u2581people": 120,
  "\u2581one": 121,
  "\u2581but": 122,
  "\u0940": 123,
  "\u2581our": 124,
  "\u2581\u0909\u0928": 125,
  "\u2581can": 126,
  "\u2581\u0915\u0939\u093e": 127,
  "\u2581\u0905\u092a\u0928\u0940": 128,
  "\u2581\u0926\u093f\u092f\u093e": 129,
  "\u2581\u0916\u093c\u0941\u0926\u093e": 130,
  "]": 131,
  "\u2581\u0909\u0938\u0947": 132,
  "\u2581\u092f\u0947": 133,
  "\u2581\u0906\u092a": 134,
  "\u2581had": 135,
  "\u2581said": 136,
  "\u2581\u092f\u093e": 137,
  "\u2581an": 138,
  "\u2581\u0905\u0932\u094d\u0932\u093e\u0939": 139,
  "\u2581my": 140,
  "\u2581shall": 141,
  "ing": 142,
  "\u2581me": 143,
  "\u2581\u092c\u093e\u0924": 144,
  "\u2581at": 145,
  "\u2581which": 146,
  "\u2581\u0909\u0928\u094d\u0939\u0947\u0902": 147,
  "\u2581Jesus": 148,
  "\u2581\u0924\u0930\u0939": 149,
  "\u2581\u0915\u0930\u0947\u0902": 150,
  "\u2581Lord": 151,
  "\u2581so": 152,
  "\u2581\u0930\u0939\u0947": 153,
  "\u2581What": 154,
  "\u2581would": 155,
  "\u2581\u0924\u0915": 156,
  "\u2581\u0915\u0930\u0924\u093e": 157,
  "\u2581may": 158,
  "\u2581if": 159,
  "\u2581\u092c\u0939\u0941\u0924": 160,
  "...": 161,
  "t": 162,
  "\u2581\u0939\u092e\u0947\u0902": 163,
  "\u2581\u092a\u093e\u0938": 164,
  "\u2581\u0915\u093e\u092e": 165,
  "\u2581no": 166,
  "\u2581\u0925\u0940": 167,
  "\u2581\u0924\u0941\u092e\u094d\u0939\u093e\u0930\u0947": 168,
  "\u2581\u092f\u0940\u0936\u0941": 169,
  "\u2581Bible": 170,
  "\u2581%": 171,
  "\u2581\u0926\u093f\u0928": 172,
  "\u2581there": 173,
  "\u2581\u0909\u0938\u0928\u0947": 174,
  "\u2581\u0938\u0915\u0924\u0947": 175,
  "\u2581\u0938\u092c": 176,
  "\u2581\u0909\u0938\u0915\u0940": 177,
  "\u0947": 178,
  "\u2581about": 179,
  "\u2581\u0930\u0939\u093e": 180,
  "\u2581out": 181,
  "\u2581\u0915\u093f\u0938\u0940": 182,
  "\u2581In": 183,
  "\u2581did": 184,
  "\u25811": 185,
  "\u2581\u0939\u092e\u0928\u0947": 186,
  "\u2581\u0939\u0941\u090f": 187,
  "\u2581\u0915\u0930\u0928\u093e": 188,
  "\u2581\u092c\u093e\u0930\u0947": 189,
  "\u2581been": 190,
  "\u2581time": 191,
  "\u2581\u0939\u0941\u0906": 192,
  "\u2581\u092e\u0941\u091d\u0947": 193,
  "\u2581then": 194,
  "\u2581They": 195,
  "\u2581\u0939\u092e\u093e\u0930\u0947": 196,
  "\u2581\u092c\u093e\u0907\u092c\u0932": 197,
  "\u2581\u0938\u0915\u0924\u093e": 198,
  "\u2581\u0905\u0917\u0930": 199,
  "\u2581\u0926\u094b": 200,
  "\u2581life": 201,
  "\u2581up": 202,
  "\u2581But": 203,
  "\u2581good": 204,
  "\u2581\u0915\u0930\u094b": 205,
  "\u2581\u092a\u0939\u0932\u0947": 206,
  ".\"": 207,
  "\u2581\u0926\u0940": 208,
  "\u2581\u092e\u0947\u0930\u0947": 209,
  "\u2581earth": 210,
  "\u2581\u0910\u0938\u093e": 211,
  "\u2581\u0938\u092e\u092f": 212,
  "\u2581\u0924\u092c": 213,
  "\u2581\u0939\u094b\u0917\u093e": 214,
  "\u2581It": 215,
  "\u2581\u0917\u090f": 216,
  "\u2581How": 217,
  "\u2581You": 218,
  "\u2581\u0932\u0947\u0915\u093f\u0928": 219,
  "\u2581should": 220,
  "\u2581(_": 221,
  "\u2581day": 222,
  "\u2581\u092c\u093e\u0926": 223,
  "\u2581does": 224,
  "\u2581some": 225,
  "\u2581her": 226,
  "\u2581say": 227,
  "\u2581\u0926\u0947": 228,
  "\u2581\u0909\u0928\u0915\u0940": 229,
  "\u2581man": 230,
  "\u2581into": 231,
  "/": 232,
  "\u2581\u0915\u094d\u092f\u094b\u0902\u0915\u093f": 233,
  "\u2581\u091a\u093e\u0939\u093f\u090f": 234,
  "\u2581before": 235,
  "\u2581more": 236,
  "\u2581\u0924\u0941\u092e\u094d\u0939\u0947\u0902": 237,
  "\u2581\u0930\u0938\u0942\u0932": 238,
  "\u093e": 239,
  "\u2581\u0939\u0942\u0901": 240,
  "\u2581\u0928\u093e\u092e": 241,
  "\u2581A": 242,
  "\u2581made": 243,
  "\u2581\u0913\u0930": 244,
  "\u2581\u091c\u093f\u0938": 245,
  "\u2581know": 246,
  "\u2581things": 247,
  "\u2581come": 248,
  "\u2581\u0939\u0930": 249,
  "\u2581also": 250,
  "\u2581\u091c\u093e": 251,
  "\u2581\u0915\u094d\u092f\u094b\u0902": 252,
  "\"": 253,
  "\u2581\u0910\u0938\u0947": 254,
  "\u2581\u0915\u0948\u0938\u0947": 255,
  "\u2581than": 256,
  "\u2581\u0932\u0947": 257,
  "\u2581_": 258,
  "\u2581only": 259,
  "\u2581make": 260,
  "\u2581\u0924\u0942": 261,
  "\u2581\u0909\u0938\u0915\u093e": 262,
  "\u2581other": 263,
  "\u2581way": 264,
  "\u2581\u0939\u094b\u0924\u093e": 265,
  "\u2581how": 266,
  "\u2581upon": 267,
  "\u0964\"": 268,
  "\u2581His": 269,
  "\u2581\u091c\u093e\u0924\u093e": 270,
  "d": 271,
  "\u2581\u0905\u092c": 272,
  "\u2581This": 273,
  "\u2581unto": 274,
  "\u2581So": 275,
  "\u2581\u0907\u0928": 276,
  "a": 277,
  "\u2581like": 278,
  "\u2581such": 279,
  "\u2581\u092f\u0926\u093f": 280,
  "\u2581even": 281,
  "\u2581\u0924": 282,
  "\u2581any": 283,
  "\u2581/": 284,
  "\u2581many": 285,
  "\u2581\u092e\u0917\u0930": 286,
  "\u2581over": 287,
  "ed": 288,
  "\u2581\u0906": 289,
  "\u2581these": 290,
  "\u2581If": 291,
  "ly": 292,
  "\u2581When": 293,
  "\u2581\u092e\u0926\u0926": 294,
  "\u2581world": 295,
  "\u2581name": 296,
  "\u2581For": 297,
  "\u2581see": 298,
  "\u2581help": 299,
  "\u2581down": 300,
  "\u2581because": 301,
  "\u2581\u0909\u0938\u0940": 302,
  "m": 303,
  "\u2581ye": 304,
  "\u2581men": 305,
  "\u2581\u0908\u092e\u093e\u0928": 306,
  "\u2581\u0905\u092a\u0928\u093e": 307,
  "\u2581\u0909\u0928\u094d\u0939\u094b\u0902\u0928\u0947": 308,
  "\u2581could": 309,
  "\u2581\u0907\u0938\u0915\u0947": 310,
  "\u2581\u0932\u093f\u092f\u093e": 311,
  "\u2581after": 312,
  "\u2581\u0907\u0938\u0932\u093f\u090f": 313,
  "\u2581\u092e\u0947\u0930\u0940": 314,
  "\u2581against": 315,
  "\u2581\u0935\u0939\u0940": 316,
  "\u2581among": 317,
  "\u0910": 318,
  "\u2581\u0939\u094b\u0928\u0947": 319,
  "\u2581\u0915\u092d\u0940": 320,
  "\u2581\u0930\u0942\u092a": 321,
  "\u2581\u0935\u093f\u0936\u094d": 322,
  "\u2581its": 323,
  "\u2581\u0939\u092e\u093e\u0930\u0940": 324,
  "\u2581love": 325,
  "\u2581\u0939\u0941\u0908": 326,
  "\u2581children": 327,
  "\u2581\u0930\u092c": 328,
  "\u2581\u0924\u093e\u0915\u093f": 329,
  "\u2581\u0906\u091c": 330,
  "\u2581\u0935": 331,
  "\u2581give": 332,
  "\u2581work": 333,
  "\u2581Then": 334,
  "\u2581she": 335,
  "\u2581need": 336,
  "\u2581take": 337,
  "the": 338,
  "\u2581\u0926\u0942\u0938\u0930\u0947": 339,
  "\u2581whom": 340,
  "\u2581\u0926\u0947\u0924\u093e": 341,
  "\u2581believe": 342,
  "\u2581Paul": 343,
  "\u2581\u0909\u0938\u0938\u0947": 344,
  "\u2581away": 345,
  "\u2581\u091c\u093e\u090f\u0917\u093e": 346,
  "\u2581\u0915\u093f\u090f": 347,
  "\u2581first": 348,
  "\u2581\u092a\u0930\u0935\u0930\u0926\u093f\u0917\u093e\u0930": 349,
  "\u2581\u0932\u093f\u092f\u0947": 350,
  "\u2581\u0915\u093f\u0938": 351,
  "\u2581\u092c\u0921\u093c\u093e": 352,
  "\u2581Him": 353,
  "\u2581faith": 354,
  "\u2581\u0915\u094c\u0928": 355,
  "\u2581sent": 356,
  "\u2581\u0918\u0930": 357,
  "\u2581As": 358,
  "\u2581two": 359,
  "\u2581\u092c\u0938": 360,
  "\u25812": 361,
  "\u2581truth": 362,
  "\u2581years": 363,
  "\u2581others": 364,
  "\u2581Why": 365,
  "\u2581\u0917\u092f\u0940": 366,
  "\u2581All": 367,
  "\u2581\u0909\u0928\u0938\u0947": 368,
  "\u2581came": 369,
  "\u2581\u0909\u0928\u0915\u093e": 370,
  "\u2581\u0915\u0939": 371,
  "\u2581\u091a\u0940\u091c\u093c": 372,
  "\u2581\u0938\u092d\u0940": 373,
  "\u2581being": 374,
  "\u2581\u092f\u0939\u093e\u0901": 375,
  "\u2581Witnesses": 376,
  "\u2581Do": 377,
  "\u2581\u092a\u0948\u0926\u093e": 378,
  "\u2581\u091c\u0948\u0938\u0947": 379,
  "\u2581nor": 380,
  "\u2581own": 381,
  "I": 382,
  "\u2581That": 383,
  "\u2581\u0926\u094d\u0935\u093e\u0930\u093e": 384,
  "\u2581\u0924\u0930\u092b": 385,
  "\u2581thou": 386,
  "\u2581\u091c\u093e\u090f": 387,
  "\u2581go": 388,
  "\u2581Christ": 389,
  "\u2581\u091c\u093c\u094d\u092f\u093e\u0926\u093e": 390,
  "\u2581\u0909\u0928\u0915\u094b": 391,
  "\u2581Israel": 392,
  "\u2581\u092d\u093e\u0908": 393,
  "\u2581\u092f\u0939\u0940": 394,
  "\u0915": 395,
  "\u2581Our": 396,
  "\u2581\u092c\u0921\u093c\u0940": 397,
  "\u2581\u0938\u0947\u0935\u093e": 398,
  "\u2581\u0926\u094b\u0928\u094b\u0902": 399,
  "\u2581Christian": 400,
  "\u2581page": 401,
  "e": 402,
  "\u2581\u092e\u0938\u0940\u0939\u0940": 403,
  "\u2581right": 404,
  "\u2581\u0938\u0902\u0926\u0947\u0936": 405,
  "\u2581\u0924\u093f": 406,
  "\u2581\u091c\u093f\u0928": 407,
  "\u2581\u0906\u092a\u0915\u094b": 408,
  "\u2581\u092f\u093e\u0926": 409,
  "\u2581\u092a\u0947\u091c": 410,
  "\u2581another": 411,
  "\u2581\u091c\u0940\u0935\u0928": 412,
  "\u2581now": 413,
  "\u2581must": 414,
  "\u2581well": 415,
  "\u2581\u0926\u0941\u0928\u093f\u092f\u093e": 416,
  "\u0924": 417,
  "\u2581\u0915\u0930\u0947\u0917\u093e": 418,
  "\u2581says": 419,
  "\u2581let": 420,
  "\u2581Christians": 421,
  "_": 422,
  "\u2581\u0915\u093e\u0930\u0923": 423,
  "\u2581\u092a\u0942\u0930\u0940": 424,
  "\u2581\u0910": 425,
  "\u2581great": 426,
  "\u2581\u0932\u0917\u0947": 427,
  "),": 428,
  "\u2581\u092a\u093f\u0924\u093e": 429,
  "\u2581\u0915\u093f\u0924\u093e\u092c": 430,
  "\u2581every": 431,
  "\u2581\u0930\u093e\u091c\u093e": 432,
  "\u2581just": 433,
  "\u2581\u0905\u091a\u094d\u091b\u093e": 434,
  "\u2581given": 435,
  "\u2581most": 436,
  "\u2581\u0939\u094b\u0924\u0940": 437,
  "?\"": 438,
  "\u2581O": 439,
  "\u2581new": 440,
  "\u2581\u092c\u093e\u0930": 441,
  "b": 442,
  "\u2581\u0915\u0930\u0915\u0947": 443,
  "\u2581\u0935\u093e\u0938": 444,
  "\u2581\u092e\u0928": 445,
  "\u2581\u092a\u0942\u0930\u093e": 446,
  "\u2581\u0910\u0938\u0940": 447,
  "\u2581\u0938\u093e\u0932": 448,
  "\u2581\u092a\u094c\u0932\u0941\u0938": 449,
  "S": 450,
  "\u2581am": 451,
  "\u2581fear": 452,
  "\u2581heart": 453,
  "\u2581true": 454,
  "\u2581family": 455,
  "\u2581back": 456,
  "\u2581spirit": 457,
  "\u2581indeed": 458,
  "\u2581\u092e\u0947\u0930\u093e": 459,
  "\u2581\u0909\u0928\u092e\u0947\u0902": 460,
  "\u2581Kingdom": 461,
  "\u2581\u0939\u094b\u0924\u0947": 462,
  "\u2581\u091a\u093e\u0939\u0924\u093e": 463,
  "\u2581\u0930\u0939\u0940": 464,
  "\u2581\u092c\u0928\u093e": 465,
  "\u2581\u0915\u0930\u0947": 466,
  "\u2581\u0915\u0908": 467,
  "\u2581death": 468,
  "\u2581become": 469,
  "\u2581might": 470,
  "\u2581\u091a\u093e\u0939\u0924\u0947": 471,
  "\u2581\u092c\u0921\u093c\u0947": 472,
  "\u2581\u0939\u093e\u0925": 473,
  "\u2581\u0924\u0941\u092e\u094d\u0939\u093e\u0930\u0940": 474,
  "\u2581\u0935\u091c\u0939": 475,
  "\u2581\u091c\u093e\u0928\u0947": 476,
  "\u2581No": 477,
  "\u2581\u0938\u092c\u0938\u0947": 478,
  "\u2581\u092c\u0947\u0936\u0915": 479,
  "\u2581\u0939\u094b\u0902\u0917\u0947": 480,
  "O": 481,
  "\u2581through": 482,
  "\u2581find": 483,
  "\u2581son": 484,
  "\u2581\u091c\u093e\u0924\u0947": 485,
  "\u2581ones": 486,
  "\u2581\u092a\u0930\u0928\u094d\u0924\u0941": 487,
  "\u0924\u093e": 488,
  "\u2581\u092c\u0940\u091a": 489,
  "\u2581\u092e\u0942\u0938\u093e": 490,
  "\u2581\u0915\u0939\u0924\u093e": 491,
  "\u2581\u0926\u093f\u0932": 492,
  "\u0928": 493,
  "\u2581Day": 494,
  "\u2581\u0906\u0917\u0947": 495,
  "\u2581\u0935\u093e\u0932\u093e": 496,
  "\u2581\u0935\u0939\u093e\u0901": 497,
  "\u2581To": 498,
  "\u2581words": 499,
  "\u2581\u0905\u0932\u0917": 500,
  "\u2581\u0927\u0930\u0924\u0940": 501,
  "\u2581\u092a\u0924\u093e": 502,
  "\u2581\u0907\u0938\u092e\u0947\u0902": 503,
  "\u2581\u0926\u0947\u0924\u0947": 504,
  "\u2581\u092c\u0932\u094d\u0915\u093f": 505,
  "\u2581themselves": 506,
  "n": 507,
  "\u2581\u0924\u0941\u092e\u094d\u0939\u093e\u0930\u093e": 508,
  "\u2581\u0907\u0938\u0938\u0947": 509,
  "\u2581example": 510,
  "\u2581\u0932\u0917\u093e": 511,
  "\u2581\u0926\u0947\u0936": 512,
  "\u2581\u092b\u093c\u093e\u0907\u0932": 513,
  "\u2581\u091c\u093e\u0928\u0924\u093e": 514,
  "\u2581used": 515,
  "\u2581want": 516,
  "in": 517,
  "\u2581\u0915\u0939\u0924\u0947": 518,
  "\u2581place": 519,
  "\u2581thee": 520,
  "\u2581\u0938\u093f\u0930\u094d\u092b": 521,
  "\u2581\u0935\u091a\u0928": 522,
  "\u2581\u0917\u0908": 523,
  "\u2581\u092e\u0938\u0940\u0939": 524,
  "\u2581land": 525,
  "\u2581never": 526,
  "\u2581\u0938\u0939\u0940": 527,
  "\u2581\u0930\u093e\u091c\u094d\u092f": 528,
  "\u2581\u091c\u093f\u0938\u0947": 529,
  "\u2581\u0920\u0940\u0915": 530,
  ").": 531,
  "\u2581where": 532,
  "\u2581set": 533,
  "\u2581\u0926\u0947\u0928\u0947": 534,
  "\u2581\u0939\u092e\u0947\u0936\u093e": 535,
  "\u2581put": 536,
  "\u2581\u0909\u0938\u0915\u094b": 537,
  "\u2581\u091c\u093e\u0924\u0940": 538,
  "\u2581\u0916\u0941\u0926": 539,
  "\u2581while": 540,
  "\u2581found": 541,
  "\u2581\u0905\u091a\u094d\u091b\u0940": 542,
  "\u2581\u092c\u093e\u0924\u0947\u0902": 543,
  "\u2581evil": 544,
  "\u2581knowledge": 545,
  "\u2581worship": 546,
  "\u2581\u092e\u093e\u0930\u094d\u0917": 547,
  "\u2581\u0936\u093e\u092f\u0926": 548,
  "\u2581surely": 549,
  "\u2581house": 550,
  "\u2581\u092a\u094d\u092f\u093e\u0930": 551,
  "\u0902": 552,
  "\u2581each": 553,
  "\u2581\u092e\u0948\u0902\u0928\u0947": 554,
  "\u0914\u0930": 555,
  "\u2581much": 556,
  "\u2581\u0924\u0947\u0930\u0947": 557,
  "\u2581My": 558,
  "\u2581\u0916\u0941\u0926\u093e": 559,
  "\u2581\u0935\u093e\u0932\u0947": 560,
  "\u2581\u0926\u0942\u0930": 561,
  "\u2581congregation": 562,
  "\u2581\u091c\u093c\u092e\u0940\u0928": 563,
  "er": 564,
  "\u2581\u0906\u090f": 565,
  "\u2581\u0915\u0930\u0947\u0902\u0917\u0947": 566,
  "\u2581\u092a\u094d\u0930\u0915\u093e\u0930": 567,
  "\u2581\u092c\u093e\u0924\u094b\u0902": 568,
  "\u2581bring": 569,
  "\u2581\u091c\u0940": 570,
  "\u2581very": 571,
  "\u2581heavens": 572,
  "\u2581\u091c\u093e\u0928\u0924\u0947": 573,
  "\u2581between": 574,
  "\u2581\u0938\u0915\u0924\u0940": 575,
  "\u2581There": 576,
  "\u2581Say": 577,
  "re": 578,
  "\u2581thy": 579,
  "\u2581\u0926\u0947\u0916\u093e": 580,
  "\u2581get": 581,
  "\u0930": 582,
  "\u2581\u0909\u0938\u092e\u0947\u0902": 583,
  "\u2581\u0938\u093e\u092e\u0928\u0947": 584,
  "\u2581spiritual": 585,
  "\u2581\u0939\u093e\u0901": 586,
  "\u2581&": 587,
  "\u2581\u0939\u094b\u0917\u0940": 588,
  "\u2581\u0906\u092f\u093e": 589,
  "\u258115": 590,
  "\u2581David": 591,
  "\u2581king": 592,
  "\u2581\u0939\u092e\u093e\u0930\u093e": 593,
  "\u2581hand": 594,
  "\u2581\u092a\u0930\u092e\u0947\u0936\u094d\u0935\u0930": 595,
  "\u2581\u091c\u093c\u093f\u0902\u0926\u0917\u0940": 596,
  "\u2581keep": 597,
  "\u2581\u0927\u094d\u092f\u093e\u0928": 598,
  "\u2581\u0928\u093f\u0936\u094d\u091a\u092f": 599,
  "\u2581\u0935\u0915\u094d": 600,
  "\u2581message": 601,
  "\u093f\u0924": 602,
  "\u2581*": 603,
  "\u2581\u0936\u0948\u0924\u093e\u0928": 604,
  "\u2581Who": 605,
  "\u2581use": 606,
  "\u2581himself": 607,
  "\u2581part": 608,
  "\u2581\u092a\u0940\u091b\u0947": 609,
  "E": 610,
  "\u2581One": 611,
  "\u2581word": 612,
  "\u2581\u0928\u093e": 613,
  "\u2581\u0926\u093f\u090f": 614,
  "\u2581show": 615,
  "\u2581\u092a\u094d\u0930\u091a\u093e\u0930": 616,
  "\u2581gave": 617,
  "\u2581\u0935\u093f\u0937\u092f": 618,
  "\u25813:": 619,
  "\u2581\u0907\u0938\u0947": 620,
  "\u2581Moses": 621,
  "\u2581days": 622,
  "\u2581\u091a\u093e\u0939\u0947": 623,
  "\u2581\u0905\u091c\u093c\u093e\u092c": 624,
  "\u2581\u0915\u093e\u0930\u094d\u092f": 625,
  "\u2581\u0938\u093e\u0930\u0947": 626,
  "\u2581\u091c\u093e\u0928": 627,
  "\u093f\u092f\u094b\u0902": 628,
  "\u2581\u0939\u0947": 629,
  "\u2581turn": 630,
  "\u2581\u0915\u0930\u0924\u0940": 631,
  "\u2581\u0907\u0928\u0915\u093e\u0930": 632,
  "\u2581\u0915\u092e": 633,
  "\u2581\u0930\u0939\u0928\u0947": 634,
  "\u2581\u091c\u093c\u0930\u0942\u0930\u0924": 635,
  "\u2581\u091b\u094b\u0921\u093c": 636,
  "\u2581\u0926\u0947\u0916": 637,
  "\u2581\u0938\u092e\u091d": 638,
  "\u2581\u091c\u0917\u0939": 639,
  "\u2581\u091c\u093f\u0938\u0928\u0947": 640,
  "\u2581end": 641,
  "\u2581\u0905\u091a\u094d\u091b\u0947": 642,
  "\u2581\u0915\u0939\u0928\u0947": 643,
  "\u2581\u0924\u0941\u092e\u0938\u0947": 644,
  "\u2581times": 645,
  "\u2581\u092e\u0928\u0941\u0937\u094d\u092f": 646,
  "\u2581\u0930\u0916\u0924\u0947": 647,
  "\u2581brought": 648,
  "\u2581\u0939\u094b\u0915\u0930": 649,
  "\u2581though": 650,
  "\u2581without": 651,
  "\u2581\u0906\u092a\u0915\u0947": 652,
  "\u2581\u0926\u0947\u0917\u093e": 653,
  "i": 654,
  "\u2581\u091c\u093e\u0928\u093e": 655,
  "\u2581\u0935\u094d\u092f\u0915\u094d": 656,
  "\u2581\u0938\u0940": 657,
  "\u2581LORD": 658,
  "\u2581Satan": 659,
  "\u2581\u0930\u0916\u093e": 660,
  "\u2581saying": 661,
  "\u2581\u092c\u091a\u094d\u091a\u094b\u0902": 662,
  "\u2581parents": 663,
  "\u2581\u0967": 664,
  "\u2581except": 665,
  "\u2581Those": 666,
  "y": 667,
  "\u2581person": 668,
  "\u2022": 669,
  "\u0915\u0930": 670,
  "\u25812:": 671,
  "\u2581\u092a\u094d\u0930\u093e\u0930\u094d\u0925\u0928\u093e": 672,
  "\u0947\u0902": 673,
  "\u2581created": 674,
  "\u2581\u0936\u0941\u0930\u0942": 675,
  "\u2581called": 676,
  "\u0928\u0947": 677,
  "\u25813": 678,
  "\u2581power": 679,
  "\u2581\u0939\u094b\u0902": 680,
  "\u2581today": 681,
  "\u2581same": 682,
  "\u2581Indeed": 683,
  "\u2581father": 684,
  "\u2581\u091c\u0935\u093e\u092c": 685,
  "\u2581\u0939\u0942\u0902": 686,
  "\u2581\u0926\u0942\u0938\u0930\u094b\u0902": 687,
  "\u2581forth": 688,
  "\u2581\u092c\u0928\u093e\u092f\u093e": 689,
  "\u2581means": 690,
  "\u2581until": 691,
  "\u2581ask": 692,
  "\u2581\u092e\u093f\u0938\u093e\u0932": 693,
  "\u2581C": 694,
  "\u2581\u0907\u0938\u0915\u093e": 695,
  "th": 696,
  "\u2581under": 697,
  "\u2581\u0939\u094b\u0928\u093e": 698,
  "\u2581file": 699,
  "\u2581\u0932\u094b": 700,
  "\u2581\u0938\u093f\u0935\u093e": 701,
  "\u2581Is": 702,
  "\u2581too": 703,
  "\u2581brothers": 704,
  "\u2581\u092a\u094d\u0930\u0947\u092e": 705,
  "\u2581book": 706,
  "\u0964\u0964": 707,
  "\u2581\u0915\u0940\u091c\u093f\u090f": 708,
  "\u2581long": 709,
  "\u2581\u092b\u093c\u094b\u0932\u094d\u0921\u0930": 710,
  "A": 711,
  "\u25814:": 712,
  "C": 713,
  "\u2581\u0916\u0941\u0936\u0940": 714,
  "\u2581hearts": 715,
  "\u2581human": 716,
  "\u2581Book": 717,
  "\u2581\u092a\u094d\u0930\u093e\u092a\u094d\u0924": 718,
  "\u2581hath": 719,
  "\u2581\u0906\u0915\u093e\u0936": 720,
  "\u2581\u091c\u093e\u0913": 721,
  "\u2581\u092e\u0924\u0932\u092c": 722,
  "\u2581servants": 723,
  "\u2581\u092a\u0943\u0925\u094d\u0935\u0940": 724,
  "\u2581believers": 725,
  "\u2581\u091c\u093c\u0930\u0942\u0930\u0940": 726,
  "\u2581peace": 727,
  "\u0916": 728,
  "\u2581\u0932\u093f\u0916\u093e": 729,
  "\u2581\u0932\u0947\u0915\u0930": 730,
  "\u2581why": 731,
  "\u2581John": 732,
  "\u2581\u0915\u093c\u094c\u092e": 733,
  "\u2581better": 734,
  "\u2581\u0906\u0917": 735,
  "\u2581\u0907\u0938\u094d\u0924\u0947\u092e\u093e\u0932": 736,
  "\u2581\u0924\u094c\u0930": 737,
  "\u2581Your": 738,
  "\u2581home": 739,
  "\u2581\u0907\u0902\u0938\u093e\u0928": 740,
  "\u2581\u090a\u092a\u0930": 741,
  "\u2581\u092a\u0930\u093f\u0935\u093e\u0930": 742,
  "\u2581\u0930\u093e\u0924": 743,
  "\u2581Word": 744,
  "\u2581\u0907\u0938\u0940": 745,
  "\u25811:": 746,
  "\u2581women": 747,
  "\u2581apostle": 748,
  "\u2581punishment": 749,
  "\u2581went": 750,
  "\u2581year": 751,
  "\u2581water": 752,
  "\u2581On": 753,
  "\u2581\u0905\u0924\u0903": 754,
  "\u2581\u0930\u0939": 755,
  "\u2581\u0915\u094b\u0936\u093f\u0936": 756,
  "\u2581\u092a\u093e\u0928\u0940": 757,
  "\u2581'%": 758,
  "\u2581cause": 759,
  "\u2581young": 760,
  "\u2581\u0924\u0941\u092e\u0928\u0947": 761,
  "\u2581\u092c\u093e\u0939\u0930": 762,
  "\u2581\u0927\u0930\u094d\u092e": 763,
  "\u2581\u0905\u0927\u093f\u0915": 764,
  "\u2581\u0930\u0939\u094b": 765,
  "\u2581both": 766,
  "\u2581wife": 767,
  "to": 768,
  "\u2581\u092a\u0935\u093f\u0924\u094d\u0930": 769,
  "\u2581ever": 770,
  "\u2581took": 771,
  "\u2581call": 772,
  "\u2581follow": 773,
  "\u2581think": 774,
  "\u2581By": 775,
  "\u2581done": 776,
  "\u2581told": 777,
  "\u0932": 778,
  "\u2581\u0938\u093e\u092b": 779,
  "\u2581\u092f\u093e\u0924\u0928\u093e": 780,
  "\u2581together": 781,
  "\u2581mankind": 782,
  "\u2581\u092c\u0928": 783,
  "\u2581\u0915\u0939\u0940\u0902": 784,
  "\u2581\u0905\u0927\u094d\u092f\u092f\u0928": 785,
  "\u2581old": 786,
  "\u2581study": 787,
  "\u2581\u0938\u093e": 788,
  "\u2581\u0938": 789,
  "\u2581news": 790,
  "\u2581Picture": 791,
  "\u2581certainly": 792,
  "\u2581clear": 793,
  "\u2581\u0924\u0948\u092f\u093e\u0930": 794,
  "\u2581full": 795,
  "\u2581night": 796,
  "\u2581righteous": 797,
  "\u2581Yahweh": 798,
  "\u2581feel": 799,
  "\u2581became": 800,
  "\u2581here": 801,
  "\u25815:": 802,
  "\u2581\u0939\u0941\u0915\u094d\u092e": 803,
  "\u2581\u092d\u093e\u0917": 804,
  "\u2581\u092e\u0938\u0940\u0939\u093f\u092f\u094b\u0902": 805,
  "\u2581\u0930\u0939\u0924\u0947": 806,
  "\u2581three": 807,
  "\u2581\u092d\u0947\u091c\u093e": 808,
  "\u2581off": 809,
  "\u2581\u092d\u0930": 810,
  "\u2581cannot": 811,
  "\u2581read": 812,
  "\u2581\u091c\u0948\u0938\u093e": 813,
  "\u2581again": 814,
  "\u2581kg": 815,
  "\u2581\u0924\u0941\u092e\u0915\u094b": 816,
  "\u2581live": 817,
  "\u0938": 818,
  "\u2581\u0921\u0930": 819,
  "\u2581able": 820,
  "\u2581yet": 821,
  "\u2581\u0907\u0938\u094d\u0930\u093e\u090f\u0932": 822,
  "\u25811,": 823,
  "\u2581\u0926\u0947\u0902": 824,
  "\u0924\u0947": 825,
  "\u2581\u0932\u0917\u0924\u093e": 826,
  "\u2581\u0935\u0915\u094d\u0924": 827,
  "\u2581\u0938\u0902\u0938\u093e\u0930": 828,
  "\u2581\u0906\u091c\u094d\u091e\u093e": 829,
  "\u2581\u0915\u0939\u0924\u0940": 830,
  "\u2581left": 831,
  "\u094b": 832,
  "\u2581\u091c\u0939\u093e\u0901": 833,
  "\u2581brother": 834,
  "\u2581city": 835,
  "\u25816:": 836,
  "\u2581eyes": 837,
  "\u2581faithful": 838,
  "\u258114": 839,
  "\u2581\u0930\u0916\u0924\u093e": 840,
  "\u2581heaven": 841,
  "\u2581\u092d\u0930\u094b\u0938\u093e": 842,
  "The": 843,
  "\u2581sin": 844,
  "\u2581wrong": 845,
  "\u2581\u0938\u0942\u091a\u0940": 846,
  "\u2581\u0906\u092f\u0924": 847,
  "\u2581doing": 848,
  "\u2581signs": 849,
  "\u258110": 850,
  "\u2581order": 851,
  "\u2581\u0935\u093e\u0938\u094d\u0924\u0947": 852,
  "\u2581best": 853,
  "\u2581Some": 854,
  "\u2581\u0932\u093e\u090f": 855,
  "\u2581\u092c\u091a\u094d\u091a\u0947": 856,
  "\u2581still": 857,
  "\u2581\u0926\u093e\u090a\u0926": 858,
  "\u258118": 859,
  "al": 860,
  "\u0915\u0947": 861,
  "\u2581mercy": 862,
  "\u2581\u0915\u093f\u0928\u094d\u0924\u0941": 863,
  "\u2581hope": 864,
  "\u2581\u25a1": 865,
  "\u2581prayer": 866,
  "c": 867,
  "\u2581\u0906\u0938\u092e\u093e\u0928": 868,
  "\u258111": 869,
  "\u2581\u091c\u094d\u091e\u093e\u0928": 870,
  "r": 871,
  "\u2581\u0928\u0940\u091a\u0947": 872,
  "\u2581\u0924\u0938\u0935\u0940\u0930": 873,
  "\u2581course": 874,
  "\u2581Thus": 875,
  "\u2581view": 876,
  "\u2581Peter": 877,
  "):": 878,
  "\u2581deeds": 879,
  "\u2581\u0936\u092c\u094d\u0926": 880,
  "\u2581\u092e\u093e\u0924\u093e": 881,
  "\u2581nothing": 882,
  "\u25814": 883,
  "\u2581return": 884,
  "\u2581However": 885,
  "\u2581New": 886,
  "\u2581\u091a\u0941\u0915\u0947": 887,
  "\u2581\u092c\u0926\u0932\u093e": 888,
  "\u2581sons": 889,
  "\u2581\u091c\u093e\u090f\u0901\u0917\u0947": 890,
  "\u2581\u092e\u0941\u091d": 891,
  "\u2581little": 892,
  "\u258112": 893,
  "\u2581\u0906\u0927\u094d\u092f\u093e\u0924\u094d\u092e\u093f\u0915": 894,
  "\u2581holy": 895,
  "\u2581\u0906\u0924\u094d\u092e\u093e": 896,
  "\u2581\u0906\u0928\u0947": 897,
  "\u2581\"%": 898,
  "\u2581\u091c\u093c\u0930\u0942\u0930": 899,
  "\u2581number": 900,
  "\u2581At": 901,
  "\u2581wrote": 902,
  "\u2581knows": 903,
  "\u2581mind": 904,
  "\u2581Let": 905,
  "\u2581\u0915\u0947\u0935\u0932": 906,
  "\u2581\u092e\u093f\u0932\u093e": 907,
  "\u2581\u091c\u092c\u0915\u093f": 908,
  "\u2581\u0938\u094d\u0925\u093e\u0928": 909,
  "\u2581\u0906\u0926\u092e\u0940": 910,
  "\u2581She": 911,
  "\u2581Yes": 912,
  "\u2581\u0938\u091a\u094d\u091a\u0947": 913,
  "\u2581therefore": 914,
  "\u2581during": 915,
  "\u2581service": 916,
  "\u2581\u092e\u093f\u0932": 917,
  "\u0928\u093e": 918,
  "\u25815": 919,
  "\u2581Jerusalem": 920,
  "\u2581\u091a\u0941\u0915\u093e": 921,
  "\u2581Father": 922,
  "\u2581serve": 923,
  "\u2581\u0930\u093e\u0939": 924,
  "\u2581neither": 925,
  "\u2581soul": 926,
  "\u2581\u091c\u093e\u090f\u0901": 927,
  "\u2581thing": 928,
  "\u2581\u092c\u0924\u093e\u092f\u093e": 929,
  "\u2581speak": 930,
  "\u2581\u0915\u0930\u0928\u0947\u0935\u093e\u0932\u0947": 931,
  "\u2581\u0938\u091a": 932,
  "\u2581\u091c\u093f\u0938\u0915\u0947": 933,
  "\u2581\u0938\u093e\u0915\u094d\u0937\u0940": 934,
  "\u2581\u0926\u0942\u0938\u0930\u0940": 935,
  "\u090f": 936,
  "\u2581face": 937,
  "\u2581\u092e\u094c\u0924": 938,
  "\u2581\u0926\u0947\u0916\u0924\u0947": 939,
  "\u2581\u091c\u093f\u0928\u094d\u0939\u0947\u0902": 940,
  "\u2581\u092a\u094d\u0930\u092d\u0941": 941,
  "\u2581\u0938\u094b": 942,
  "\u2581\u092e\u094c\u091c\u0942\u0926": 943,
  "\u2581living": 944,
  "\u2581These": 945,
  "\u2581dead": 946,
  "\u2581\u0906\u0936\u093e": 947,
  "\u2581\u092a\u0921\u093c\u0947": 948,
  "\u2581something": 949,
  "\u2581\u0925\u0940\u0902": 950,
  "\u2581leave": 951,
  "\u25817": 952,
  "an": 953,
  "\u0928\u093e\u091c\u093c\u093f\u0932": 954,
  "\u2581learn": 955,
  "\u2581\u0924\u0940\u0928": 956,
  "\u2581\u0926\u094c\u0930\u093e\u0928": 957,
  "\u2581After": 958,
  "\u2581\u0938\u0932\u093e\u0939": 959,
  "!\"": 960,
  "\u2581reward": 961,
  "\u2581\u0938\u091a\u094d\u091a\u093e\u0908": 962,
  "\u2581Yet": 963,
  "\u2581\u092e\u093e\u0901": 964,
  "\u2581near": 965,
  "\u2581\u0930\u0939\u0924\u093e": 966,
  "\u2581\u0905\u0928\u0941\u0938\u093e\u0930": 967,
  "\u2581look": 968,
  "\u2581.": 969,
  "\u2581\u0924\u0941\u091d\u0947": 970,
  "\u2581hands": 971,
  "\u2581\u092a\u094d\u0930\u0926\u093e\u0928": 972,
  "\u2581ways": 973,
  "\u25818": 974,
  "\u092e": 975,
  "\u2581With": 976,
  "\u2581Messenger": 977,
  "\u2581\u0926\u0947\u0928\u093e": 978,
  "\u2581Most": 979,
  "\u2581\u091c\u093c\u093e\u0939\u093f\u0930": 980,
  "\u258120": 981,
  "\u2581\u0909\u0926\u093e\u0939\u0930\u0923": 982,
  "\u2581\u0930\u0916": 983,
  "\u2581having": 984,
  "\u2581\u0932\u0947\u0916": 985,
  "\u2581\u0938\u0928\u094d": 986,
  "\u2581\u0932\u0947\u0928\u0947": 987,
  "We": 988,
  "\u2581\u091c\u093f\u0938\u092e\u0947\u0902": 989,
  "\u2581account": 990,
  "\u2581\u0936\u0915\u094d": 991,
  "\u2581\u0939\u093e\u0932\u093e\u0901\u0915\u093f": 992,
  "\u2581\u0915\u0930\u0940\u092c": 993,
  "\u2581\u092a\u0924\u094d\u0928\u0940": 994,
  "\u2581woman": 995,
  "of": 996,
  "\u2581Now": 997,
  "\u2581\u092c\u0928\u093e\u090f": 998,
  "\u2581going": 999,
  "\u2581asked": 1000,
  "\u2581saw": 1001,
  "\u2581Abraham": 1002,
  "\u2581light": 1003,
  "\u2581\u0938\u093e\u0915\u094d\u0937\u093f\u092f\u094b\u0902": 1004,
  "\u2581toward": 1005,
  "\u2581whose": 1006,
  "\u2581\u092e\u0924": 1007,
  "\u2581\u091c\u093e\u090f\u0917\u0940": 1008,
  "\u2581often": 1009,
  "\u2581important": 1010,
  "\u2581later": 1011,
  "R": 1012,
  "\u2581\u0926\u093f\u0928\u094b\u0902": 1013,
  "\u25816": 1014,
  "\u2581\u0938\u093e\u0930\u0940": 1015,
  "\u2581\u0930\u0916\u0928\u0947": 1016,
  "\u2581\u0932\u0947\u0924\u0947": 1017,
  "\u2581\u0928\u092f\u093e": 1018,
  "\u2581don": 1019,
  "\u2581\u092c\u0941\u0930\u093e": 1020,
  "\u2581mother": 1021,
  "\u2581revealed": 1022,
  "\u2581fact": 1023,
  "\u2581religion": 1024,
  "\u2581\u0928\u093f\u0938\u094d\u0938\u0902\u0926\u0947\u0939": 1025,
  "\u2581matter": 1026,
  "\u2581\u092d\u091c\u0928": 1027,
  "\u2581tell": 1028,
  "\u2581\u0938\u0915\u093e": 1029,
  "\u092f\u0947": 1030,
  "\u2581angels": 1031,
  "\u2581child": 1032,
  "\u2581\u0905\u092d\u0940": 1033,
  "\u2581\u0935\u093e\u0932\u094b\u0902": 1034,
  "\u2581\u092a\u0939\u0932\u0940": 1035,
  "\u2581S": 1036,
  "\u2581\u092a\u094d\u0930\u0947\u0930\u093f\u0924": 1037,
  "g": 1038,
  "\u2581\u092e\u093e\u0930": 1039,
  "\u2581\u092a\u093e\u092a": 1040,
  "eth": 1041,
  "\u2581began": 1042,
  "\u2581always": 1043,
  "\u2581folder": 1044,
  "\u2581fire": 1045,
  "\u2581\u092c\u093e\u092a": 1046,
  "\u2581blood": 1047,
  "\u2581hear": 1048,
  "\u2581save": 1049,
  "\u2581disciples": 1050,
  "\u2581B": 1051,
  "\u2581\u0915\u0932\u0940\u0938\u093f\u092f\u093e": 1052,
  "\u2581understand": 1053,
  "\u2581\u091c\u093f\u0938\u0915\u093e": 1054,
  "\u2581\u092a\u094d\u0930\u0924\u093f": 1055,
  "\u2581\u0968": 1056,
  "\u2581making": 1057,
  "\u2581\u092c\u093f\u0928\u093e": 1058,
  "\u25819": 1059,
  "\u2581\u0936\u0916\u094d\u0938": 1060,
  "\u2581\u0921\u093e\u0932": 1061,
  "or": 1062,
  "\u2581\u0915\u093e\u092e\u094b\u0902": 1063,
  "\u0928\u0940": 1064,
  "\u258113": 1065,
  "\u2581free": 1066,
  "\u2581\u0905": 1067,
  "p": 1068,
  "\u2581\u0921\u093e\u0932\u093e": 1069,
  "\u2581\u0939\u0915\u093c": 1070,
  "\u2581\u0924\u0947\u0930\u0940": 1071,
  "\u2581\u0930\u0939\u0947\u0902\u0917\u0947": 1072,
  "\u2581\u0928\u091c\u093c\u0930": 1073,
  "\u2581food": 1074,
  "\u2581ministry": 1075,
  "\u2581preaching": 1076,
  "\u2581nations": 1077,
  "\u092e\u0948\u0902": 1078,
  "\u2581according": 1079,
  "\u2581\u0932\u0940": 1080,
  "st": 1081,
  ",\"": 1082,
  "\u2581last": 1083,
  "\u2581\u0905\u0928\u094d\u092f": 1084,
  "\u2581\u092a\u0941\u0924\u094d\u0930\u093e": 1085,
  "\u2581witness": 1086,
  "\u2581wisdom": 1087,
  "\u2581\u091a\u0932": 1088,
  "\u0915\u094d\u092f\u093e": 1089,
  "o": 1090,
  "M": 1091,
  "\u2581guidance": 1092,
  "\u2581\u091c\u093f\u0928\u0915\u0947": 1093,
  "\u2581\u0935\u094d\u092f\u0935\u0938\u094d\u0925\u093e": 1094,
  "\u2581really": 1095,
  "\u258116": 1096,
  "\u2581translation": 1097,
  "\u2581\u0930\u0916\u094b": 1098,
  "\u2581Matthew": 1099,
  "\u094d": 1100,
  "\u2581taken": 1101,
  "\u2581\u092a\u0924\u0930\u0938": 1102,
  "\u2581\u092a\u093e\u0928\u0947": 1103,
  "\u2581sure": 1104,
  "\u2581desire": 1105,
  "\u2581\u092f\u0915\u093c\u0940\u0928\u0928": 1106,
  "\u2581\u092f\u0930\u0942\u0936\u0932\u0947\u092e": 1107,
  "\u2581reason": 1108,
  "\u2581heard": 1109,
  "\u2581\u0939\u093e\u0932": 1110,
  "\u2581eat": 1111,
  "\u2581far": 1112,
  "%": 1113,
  "\u2581\u091c\u093c\u0930\u093f\u090f": 1114,
  "\u2581\u092a\u0942\u0930\u0947": 1115,
  "\u2581\u092e\u0941\u0901\u0939": 1116,
  "\u2581comes": 1117,
  "ll": 1118,
  "\u2581already": 1119,
  "\u2581known": 1120,
  "\u092e\u0947\u0902": 1121,
  "\u2581Even": 1122,
  "\u2581\u0932\u0947\u0902": 1123,
  "\u2581seek": 1124,
  "\u2581\u092a\u0947\u0936": 1125,
  "\u2581command": 1126,
  "\u2581\u0907\u0924\u0928\u093e": 1127,
  "\u2581therein": 1128,
  "\u2581\u092e\u0924\u094d\u0924\u0940": 1129,
  "\u2581law": 1130,
  "\u2581Are": 1131,
  "\u2581seen": 1132,
  "\u2581\u0915\u0939\u094b": 1133,
  "\u2581\u091c\u093f\u0928\u094d\u0939\u094b\u0902\u0928\u0947": 1134,
  "\u2581Surely": 1135,
  "optional": 1136,
  "\u2581turned": 1137,
  "\u2581\u0909\u092a\u093e\u0938\u0928\u093e": 1138,
  "\u2581Show": 1139,
  "\u2581following": 1140,
  "\u2581\u0930\u0939\u0928\u093e": 1141,
  "\u2581\u092a\u094d\u0930\u092f\u094b\u0917": 1142,
  "\u2581open": 1143,
  "\u2581Psalm": 1144,
  "\u2581wicked": 1145,
  "\u2581\u0926\u0947\u0916\u094b": 1146,
  "\u2581century": 1147,
  "\u2581\u092d\u093e\u0907\u092f\u094b\u0902": 1148,
  "\u2581\u0930\u0902\u0917": 1149,
  "\u2581\u0939\u093f\u0938\u094d\u0938\u093e": 1150,
  "\u2581\u092b\u0932": 1151,
  "\u2581\u0909\u0928\u092a\u0930": 1152,
  "\u2581few": 1153,
  "\u2581\u092c\u0947\u091f\u0947": 1154,
  "\u2581consider": 1155,
  "\u2581receive": 1156,
  "\u2581information": 1157,
  "\u2581\u092a\u093e\u092f\u093e": 1158,
  "\u2581promise": 1159,
  "\u2581\u092e\u0941\u0924\u093e\u092c\u093f\u0915": 1160,
  "\u2581\u0907\u0938\u0915\u0940": 1161,
  "\u2581...": 1162,
  "\u2581\u0915\u0930\u0928\u0947\u0935\u093e\u0932\u094b\u0902": 1163,
  "\u2581remember": 1164,
  "\u2581\u092c\u0930\u093e\u092c\u0930": 1165,
  "\u2581\u091a\u0932\u0947": 1166,
  "\u2581send": 1167,
  "\u2581\u0938\u094d\u0924\u094d\u0930\u0940": 1168,
  "\u2581nation": 1169,
  "\u2581From": 1170,
  "\u2581Not": 1171,
  "\u2581Or": 1172,
  "\u2581thus": 1173,
  "\u092c": 1174,
  "\u2581King": 1175,
  "\u2581\u0924\u093e": 1176,
  "\u2581\u092d\u092f": 1177,
  "\u2581whatever": 1178,
  "\u2581\u091c\u093f\u0938\u0938\u0947": 1179,
  "\u2581works": 1180,
  "\u2581%1": 1181,
  "D": 1182,
  "\u2581high": 1183,
  "\u2581\u092e\u091c\u093c\u092c\u0942\u0924": 1184,
  "\u2581die": 1185,
  "\u2581\u0917\u0941\u0928\u093e\u0939": 1186,
  "\u2581\u092c\u0928\u093e\u0928\u0947": 1187,
  "\u2581verily": 1188,
  "\u2581\u092f\u0942\u0939\u0928\u094d": 1189,
  "\u2581\u0916\u093e\u0938": 1190,
  "\u2581around": 1191,
  "\u2581\u092e\u093e\u0932\u0942\u092e": 1192,
  "\u2581\u092d\u093e\u0937\u093e": 1193,
  "\u2581Son": 1194,
  "\u2581whether": 1195,
  "\u2581result": 1196,
  "\u093c": 1197,
  "\u2581\u092a\u094d\u0930\u093e\u091a\u0940\u0928": 1198,
  "\u2581\u0926\u093f\u0916\u093e\u090f\u0901": 1199,
  "\u0915\u0940": 1200,
  "\u2581\u092e\u0930": 1201,
  "\u2581\u0938\u094d\u0925\u093f\u0924\u093f": 1202,
  "\u0913\u0902": 1203,
  "\u2581\u0936\u093e\u092e\u093f\u0932": 1204,
  "\u2581\u092a\u0924\u093f": 1205,
  "\u2581\u0905\u0932\u093e\u0935\u093e": 1206,
  "\u2581\u0938\u0902\u092a\u0930\u094d\u0915": 1207,
  "\u2581Could": 1208,
  "\u2581\u0924\u0947\u0930\u093e": 1209,
  "\u2581\u0938\u094d\u0935\u0930\u094d\u0917": 1210,
  "\u2581however": 1211,
  "\u2581\u092a\u0921\u093c\u093e": 1212,
  "\u2581loving": 1213,
  "\u2581\u0926\u0947\u0902\u0917\u0947": 1214,
  "\u2581\u092e\u093e\u0932": 1215,
  "\u2581\u092a\u093e": 1216,
  "\u2581\u092e\u0948": 1217,
  "\u2581joy": 1218,
  "\u2581\u092c\u0922\u093c": 1219,
  "\u2581\u092c\u091c\u093e\u092f": 1220,
  "\u2581\u091c\u093e\u0928\u0915\u093e\u0930\u0940": 1221,
  "\u2581above": 1222,
  "\u2581anything": 1223,
  "\u2581error": 1224,
  "\u2581marriage": 1225,
  "\u2581trust": 1226,
  "\u2581list": 1227,
  "Name": 1228,
  "\u2581\u0928\u094d\u092f\u093e\u092f": 1229,
  "\u2581system": 1230,
  "\u2581D": 1231,
  "\u2581\u0930\u0916\u0928\u093e": 1232,
  "\u2581\u0915\u0930\u094d\u092e": 1233,
  "\u2581Jews": 1234,
  "\u2581yourselves": 1235,
  "\u2581\u0928\u0917\u0930": 1236,
  "\u2581share": 1237,
  "\u0916\u093c\u0941\u0926\u093e": 1238,
  "\u2581\u091a\u0932\u093e": 1239,
  "\u2581\u0916\u0941\u0936": 1240,
  "\u2581\u0938\u092e\u093e\u0928": 1241,
  "\u2581\u0924\u094d\u0930\u0941\u091f\u093f": 1242,
  "\u2581\u092e\u0939\u0938\u0942\u0938": 1243,
  "\u2581present": 1244,
  "\u2581\u0935\u093f\u091a\u093e\u0930": 1245,
  "\u2581\u0915\u094d\u0937\u092e\u093e": 1246,
  "\u2581\u092c\u0941\u0926\u094d\u0927\u093f": 1247,
  "\u258125": 1248,
  "\u2581Scriptures": 1249,
  "\u2581Name": 1250,
  "\u2581\u0915\u0948\u0938\u093e": 1251,
  "l": 1252,
  "\u2581someone": 1253,
  "\u2581\u092e\u093e\u092e\u0932\u0947": 1254,
  "\u2581support": 1255,
  "\u2581\u0930\u0939\u0947\u0917\u093e": 1256,
  "\u2581\u0938\u094d\u092a\u0937\u094d\u091f": 1257,
  "\u2581answer": 1258,
  "\u2581\u0935\u093e\u0926\u093e": 1259,
  "\u25812.": 1260,
  "\u2581purpose": 1261,
  "\u2581thought": 1262,
  "\u2581\u0935\u0930\u094d\u0937": 1263,
  "\u2581elders": 1264,
  "\u2581\u0907\u0938\u0932\u093f\u092f\u0947": 1265,
  "\u2581\u0917\u0932\u0924": 1266,
  "\u2581\u0930\u0939\u0947\u0902": 1267,
  "\u2581\u0917\u0935\u093e\u0939\u0940": 1268,
  "\u2581\u0936\u093e\u0926\u0940": 1269,
  "\u2581Us": 1270,
  "\u2581appointed": 1271,
  "\u2581\u0906\u092a\u0915\u0940": 1272,
  "\u2581counsel": 1273,
  "\u0908": 1274,
  "\u2581next": 1275,
  "\u2581\u0928\u090f": 1276,
  "\u2581kind": 1277,
  "\u2581\u0909\u0920\u093e": 1278,
  "\u2581different": 1279,
  "\u2581Have": 1280,
  "ve": 1281,
  "\u2581humans": 1282,
  "\u2581husband": 1283,
  "\u2581lives": 1284,
  "\u091c\u094b": 1285,
  "\u2581\u0905\u0927\u093f\u0915\u093e\u0930": 1286,
  "\u2581Verily": 1287,
  "\u2581\u092f\u0941\u0926\u094d\u0927": 1288,
  "\u258112:": 1289,
  "\u2581none": 1290,
  "\u2581\u0917\u0941\u0923": 1291,
  "\u2581enter": 1292,
  "\u2581\u0935\u094d\u092f\u0915\u094d\u0924\u093f": 1293,
  "\u2581\u091c\u0932\u094d\u0926": 1294,
  "\u258117": 1295,
  "\u2581\u092c\u0947\u0939\u0924\u0930": 1296,
  "\u2581fellow": 1297,
  "\u2581certain": 1298,
  "\u2581everything": 1299,
  "\u2581\u091c\u093e\u0924\u093f": 1300,
  "\u2581\u0907\u091a\u094d\u091b\u093e": 1301,
  "\u2581Many": 1302,
  "\u2581\u092d\u0932\u093e\u0908": 1303,
  "\u2581\u091c\u093e\u0915\u0930": 1304,
  "\u2581sign": 1305,
  "\u2581\u0936\u093f\u0915\u094d\u0937\u093e": 1306,
  "\u2581\u091b\u0935\u093f": 1307,
  "\u2581\u091c\u093f\u0938\u0915\u0940": 1308,
  "\u2581\u0936\u0939\u0930": 1309,
  "able": 1310,
  "\u2581bad": 1311,
  "\u2581knew": 1312,
  "\u2581\u091a\u0941\u0928\u0947\u0902": 1313,
  "\u2581hard": 1314,
  "\u2581close": 1315,
  "\u2581received": 1316,
  "\u2581\u0938\u0924\u094d\u092f": 1317,
  "\u2581\u0926\u094b\u0938\u094d\u0924": 1318,
  "\u2581article": 1319,
  "\u2581fine": 1320,
  "\u2581\u0915\u093e\u092b\u0940": 1321,
  "\u0935": 1322,
  "\u2581\u0938\u0935\u093e\u0932": 1323,
  "\u2581body": 1324,
  "\u2581personal": 1325,
  "\u2581\u0936\u0915": 1326,
  "\u2581yourself": 1327,
  "\u2581stand": 1328,
  "\u2581Of": 1329,
  "\u2581\u092c\u0926\u0932": 1330,
  "\u2581\u0926\u093f\u0916\u093e\u092f\u093e": 1331,
  "F": 1332,
  "\u2581\u0916\u0921\u093c\u0947": 1333,
  "\u2581gives": 1334,
  "\u2581\u0906\u0924\u093e": 1335,
  "\u2581\u092e\u093f\u0932\u0940": 1336,
  "\u2581\u0915\u0930\u0928\u0947\u0935\u093e\u0932\u093e": 1337,
  "\u2581\u0926\u0947\u0924\u0940": 1338,
  "\u2581righteousness": 1339,
  "\u2581covenant": 1340,
  "\u2581\u0905\u0924\u094d\u092f\u0928\u094d": 1341,
  "\u2581\u092e\u0943\u0924\u094d\u092f\u0941": 1342,
  "\u2581makes": 1343,
  "\u2581\u0938\u094d\u0935\u092f\u0902": 1344,
  "\u2581\u092c\u0926\u0932\u0947": 1345,
  "\u2581benefit": 1346,
  "\u2581\u092a\u0939\u0941\u0901\u091a\u093e": 1347,
  "\u2581along": 1348,
  "\u2581change": 1349,
  "\u2581sins": 1350,
  "\u2581soon": 1351,
  "\u2581four": 1352,
  "\u2581since": 1353,
  "\u2581\u092c\u092f\u093e\u0928": 1354,
  "\u2581\u0915\u093f\u0924\u0928\u093e": 1355,
  "\u2581whole": 1356,
  "\u2581future": 1357,
  "T": 1358,
  "\u2581believed": 1359,
  "\u2581\u0926\u0947\u0916\u0915\u0930": 1360,
  "\u2581behind": 1361,
  "\u2581\u0926\u0947\u0916\u0928\u0947": 1362,
  "\u2581case": 1363,
  "\u2581care": 1364,
  "\u2581\u092d\u0932\u093e": 1365,
  "\u2581\u092e\u0941\u0936\u094d": 1366,
  "\u2581\u0928\u093f\u0915\u0932": 1367,
  "\u2581\u092c\u0941\u0930\u093e\u0908": 1368,
  "\u2581helped": 1369,
  "\u2581\u0909\u0924\u094d\u0924\u0930": 1370,
  "],": 1371,
  "\u2581\u0969": 1372,
  "\u2581\u0938\u0915\u0947": 1373,
  "\u2581anyone": 1374,
  "\u2581war": 1375,
  "\u2581\u092a\u0948\u0917\u093c\u092e\u094d\u092c\u0930": 1376,
  "\u2581\u0938\u0930\u094d\u0935\u0930": 1377,
  "\u2581\u091a\u0932\u0924\u0947": 1378,
  "\u2581selected": 1379,
  "\u25814.": 1380,
  "\u2581anointed": 1381,
  "\u2581religious": 1382,
  "u": 1383,
  "\u2581Be": 1384,
  "\u2581alone": 1385,
  "\u2581\u0938\u093e\u092e\u0928\u093e": 1386,
  "You": 1387,
  "\u2581\u0924\u0941\u091d": 1388,
  "on": 1389,
  "\u2581Such": 1390,
  "\u2581group": 1391,
  "\u2581friends": 1392,
  "\u2581\u0938\u092e\u091d\u0924\u0947": 1393,
  "\u2581\u0916\u094b\u091c": 1394,
  "\u2581\u0906\u092a\u0915\u093e": 1395,
  "\u2581\u092c\u0941\u0930\u0940": 1396,
  "\u2581Their": 1397,
  "\u2581doubt": 1398,
  "P": 1399,
  "\u2581\u092e\u093e\u0928\u0924\u0947": 1400,
  "\u2581Me": 1401,
  "\u2581\u092e\u093f\u0932\u0924\u0940": 1402,
  "\u2581\u0915\u0930\u0928\u0940": 1403,
  "\u2581Because": 1404,
  "\u2581messages": 1405,
  "\u2581Therefore": 1406,
  "\u2581\u092c": 1407,
  "\u2581\u092e\u093e\u0928": 1408,
  "\u2581lead": 1409,
  "\u2581sea": 1410,
  "\u2581\u0938\u094b\u091a": 1411,
  "\u2581wise": 1412,
  "\u2581path": 1413,
  "\u2581\u0930\u093f\u0936\u094d": 1414,
  "\u2581\u0935\u093e\u092a\u0938": 1415,
  "\u2581Can": 1416,
  "\u2581kingdom": 1417,
  "\u2581\u0936\u092c\u094d\u0926\u094b\u0902": 1418,
  "\u2581\u0915\u0943\u092a\u092f\u093e": 1419,
  "es": 1420,
  "\u2581probab": 1421,
  "\u2581\u0938\u0941\u0928": 1422,
  "\u258124": 1423,
  "\u2581mean": 1424,
  "\u2581\u092b\u0948\u0938\u0932\u093e": 1425,
  "\u2581\u0939\u0926": 1426,
  "\u2581Fire": 1427,
  "\u2581language": 1428,
  "\u0906\u0916\u093c\u093f\u0930\u0924": 1429,
  "\u2581continue": 1430,
  "x": 1431,
  "\u2581money": 1432,
  "\u2581\u0938\u091c\u093c\u093e": 1433,
  "City": 1434,
  "\u2581Will": 1435,
  "\u2581\u0939\u093e\u0938\u093f\u0932": 1436,
  "\u2581People": 1437,
  "\u2581\u0917\u094c\u0930": 1438,
  "\u2581\u092f": 1439,
  "\u2581\u0915\u093f\u0924\u0928\u0940": 1440,
  "\u258119": 1441,
  "\u2581Please": 1442,
  "\u2581\u0921\u093e\u0915": 1443,
  "\u2581experience": 1444,
  "L": 1445,
  "\u2581\u092c\u093f\u0932\u0915\u0941\u0932": 1446,
  "\u2581coming": 1447,
  "\u2581provided": 1448,
  "\u2581\u092c\u093e\u091c\u093c": 1449,
  "\u2581age": 1450,
  "\u258110:": 1451,
  "\u2581Isaiah": 1452,
  "\u2581\u092c\u0939\u0928": 1453,
  "\u2581possible": 1454,
  "\u2581ourselves": 1455,
  "\u2581questions": 1456,
  "\u2581got": 1457,
  "\u2581\u0928\u0942\u0939": 1458,
  "\u2581please": 1459,
  "\u2581image": 1460,
  "\u2581pray": 1461,
  "\u2581concerning": 1462,
  "\u2581Lo": 1463,
  "\u2581remain": 1464,
  "\u2581\u0939\u093f\u0926\u093e\u092f\u0924": 1465,
  "\u2581\u0928\u093e\u0936": 1466,
  "\u2581\u0905\u0924\u093e": 1467,
  "\u2581\u092f\u0939\u0942\u0926\u0940": 1468,
  "\u258110.": 1469,
  "\u2581within": 1470,
  "\u2581Adam": 1471,
  "\u2581Solomon": 1472,
  "\u2581prophet": 1473,
  "\u2581\u0930\u093e\u091c": 1474,
  ":%": 1475,
  "\u2581\u092c\u092a\u0924\u093f\u0938\u094d\u092e\u093e": 1476,
  "\u2581strong": 1477,
  "\u2581authority": 1478,
  "\u2581\u0906\u0924\u0947": 1479,
  "\u2581\u0938\u0939\u093e\u092f\u0924\u093e": 1480,
  "\u258130": 1481,
  "\u2581\u090f": 1482,
  "\u2581\u0926\u093f\u0916\u093e": 1483,
  "\u2581teaching": 1484,
  "\u2581\u0928\u093f\u0915\u093e\u0932": 1485,
  "\u2581\u0939\u093e\u0932\u093e\u0924": 1486,
  "\u2581\u0926\u0947\u0916\u093f\u090f": 1487,
  "\u2581\u0928\u092e\u093e\u091c\u093c": 1488,
  "\u2581happy": 1489,
  "\u2581\u092a\u0921\u093c": 1490,
  "\u090f\u0915": 1491,
  "\u2581\u091a\u093e\u0930": 1492,
  "\u2581\u091d\u0942\u0920": 1493,
  "\u0935\u0939": 1494,
  "\u2581\u0915\u0939\u0947\u0902\u0917\u0947": 1495,
  "\u2581forever": 1496,
  "\u2581torment": 1497,
  "\u2581meetings": 1498,
  "\u2581obey": 1499,
  "\u2581needed": 1500,
  "\u2581talk": 1501,
  "\u2581try": 1502,
  "\u2581\u0906\u0907\u090f": 1503,
  "\u2581\u092c\u0928\u094d\u0926\u094b\u0902": 1504,
  "ther": 1505,
  "\u2581respect": 1506,
  "\u2581greater": 1507,
  "\u2581\u0926\u0947\u0936\u094b\u0902": 1508,
  "\u2581self": 1509,
  "\u2581\u0938\u0902\u0916\u094d\u092f\u093e": 1510,
  "\u2581\u0915\u093f\u0928": 1511,
  "\u0924\u0940": 1512,
  "\u2581small": 1513,
  "\u2581\u092f\u093e\u0915\u0942\u092c": 1514,
  "\u2581\u092f\u093e\u0928\u0940": 1515,
  "\u2581\u0905\u0938\u0930": 1516,
  "\u2581\u0917\u0935\u093e\u0939": 1517,
  "\u2581disbelieve": 1518,
  "\u2581\u0926\u093f\u0932\u094b\u0902": 1519,
  "\u25818.": 1520,
  "\u2581false": 1521,
  "\u2581Merciful": 1522,
  "\u2581\u0938\u0941\u0928\u093e": 1523,
  "\u2581promised": 1524,
  "\u2581hold": 1525,
  "\u2581\u092f\u094b\u0917\u094d\u092f": 1526,
  "This": 1527,
  "\u092a\u0930": 1528,
  "\u2581\u0909\u0928\u094d\u0939\u0940\u0902": 1529,
  "\u2581\u092e\u0928\u0941\u0937\u094d\u092f\u094b\u0902": 1530,
  "B": 1531,
  "\u2581deny": 1532,
  "\u0939\u0930\u0917\u093f\u091c\u093c": 1533,
  "\u2581\u0930\u0940\u0924\u093f": 1534,
  "\u2581giving": 1535,
  "\u2581problems": 1536,
  "\u2581\u092f\u0915\u0940\u0928": 1537,
  "\u2581heavenly": 1538,
  "\u2581\u0906\u0926\u0930": 1539,
  "\u2581act": 1540,
  "\u2581\u0915\u0939\u0928\u093e": 1541,
  "\u0905\u092a\u0928\u0947": 1542,
  "\u2581enjoy": 1543,
  "\u2581\u092c\u0902\u0926": 1544,
  "\u2581\u0915\u094d\u0937\u0947\u0924\u094d\u0930": 1545,
  "\u2581provide": 1546,
  "\u2581point": 1547,
  "\u2581\u091a\u092f\u0928\u093f\u0924": 1548,
  "\u2581\u0906\u092a\u0928\u0947": 1549,
  "\u2581conduct": 1550,
  "\u2581fathers": 1551,
  "\u2581glory": 1552,
  "\u2581taught": 1553,
  "\u2581astray": 1554,
  "\u2581side": 1555,
  "\u2581\u091a\u0930\u094d\u091a\u093e": 1556,
  "\u2581bear": 1557,
  "\u2581\u0935\u093f\u0902\u0921\u094b": 1558,
  "\u2581Israelites": 1559,
  "\u2581\u0916\u093e\u0928\u0947": 1560,
  "\u2581\u0926\u093e\u0938": 1561,
  "\u2581Judah": 1562,
  "\u2581learned": 1563,
  "\u2581avoid": 1564,
  "\u2581\u0938\u093e\u0925\u0940": 1565,
  "\u2581Prophet": 1566,
  "\u2581\u092c\u0948\u0920\u0947": 1567,
  "\u25817:": 1568,
  "\u2581\u091a\u0932\u0924\u093e": 1569,
  "\u25815.": 1570,
  "\u258121": 1571,
  "\u2581creation": 1572,
  "\u0924\u094b": 1573,
  "\u2581\u0924\u0941\u092e\u092a\u0930": 1574,
  "\u2581\u0936\u0930\u0940\u0930": 1575,
  "H": 1576,
  "\u2581--": 1577,
  "\u2581\u0906\u0915\u0930": 1578,
  "ers": 1579,
  "\u258122": 1580,
  "\u2581E": 1581,
  "\u2581whoever": 1582,
  "\u0939\u092e": 1583,
  "\u2581accept": 1584,
  "\u2581raised": 1585,
  "\u2581\u0915\u093c\u0938\u092e": 1586,
  "\u2581seven": 1587,
  "\u2581truly": 1588,
  "\u2581died": 1589,
  "\u2581\u0905\u0930\u094d\u0925\u093e\u0924\u094d": 1590,
  "\u2581\u0938\u093e\u092e\u094d\u0939\u0928\u0947": 1591,
  "\u2581An": 1592,
  "\u2581\u0905\u0915\u0938\u0930": 1593,
  "\u2581\u092a\u0942\u091b\u093e": 1594,
  "\u2581apostles": 1595,
  "\u2581pass": 1596,
  "\u2581\u0915\u093f\u0924\u0928\u0947": 1597,
  "\u2581\u092a\u0943\u0937\u094d\u0920": 1598,
  "\u2581\u0938\u093e\u092c\u093f\u0924": 1599,
  "\u2581\u0905\u0902\u0926\u0930": 1600,
  "\u2581drink": 1601,
  "\u2581Proverbs": 1602,
  "\u2581relationship": 1603,
  "\u2581early": 1604,
  "\u2581\u0905\u0928\u0947\u0915": 1605,
  "\u2581Canno": 1606,
  "\u2581\u092c\u0922\u093c\u0915\u0930": 1607,
  "\u2581\u091c\u0940\u0935\u093f\u0924": 1608,
  "\u2581\u0907\u092c\u0930\u093e\u0939\u0940\u092e": 1609,
  "\u2581praise": 1610,
  "\u25813.": 1611,
  "\u2581Muhammad": 1612,
  "\u2581\u0915\u0939\u093e\u0901": 1613,
  "\u2581guide": 1614,
  "\u25817.": 1615,
  "\u2581destroyed": 1616,
  "\u2581\u0938\u091a\u094d\u091a\u0940": 1617,
  "\u0924\u0941\u092e": 1618,
  "\u2581\u092e\u093f\u0932\u0924\u093e": 1619,
  "\u2581\u096a": 1620,
  "\u2581Job": 1621,
  "\u2581strength": 1622,
  "\u2581\u0932\u0917\u0940": 1623,
  "\u2581Pharaoh": 1624,
  "\u2581\u0905\u0930\u094d\u0925": 1625,
  "\u2581field": 1626,
  "\u0915\u094b": 1627,
  "\u2581felt": 1628,
  "\u2581\u0935\u092b\u093e\u0926\u093e\u0930": 1629,
  "\u2581s": 1630,
  "\u2581\u092c\u091a\u093e": 1631,
  "\u2581lost": 1632,
  "\u2581\u0909\u092a\u092f\u094b\u0917": 1633,
  "\u2581address": 1634,
  "\u2581\u0938\u091a\u092e\u0941\u091a": 1635,
  "\u2581kindness": 1636,
  "\u2581temple": 1637,
  "\u2581\u0930\u0916\u0947\u0902": 1638,
  "\u2581question": 1639,
  "\u2581\u0906\u092a\u0938": 1640,
  "\u2581\u092e\u093e\u0928\u094b": 1641,
  "\u2581create": 1642,
  "\u2581text": 1643,
  "\u258114.": 1644,
  "\u2581\u0909\u0928\u094d\u0939\u094b\u0902": 1645,
  "\u2581sense": 1646,
  "\u2581understanding": 1647,
  "\u2581\u092f\u0939\u0942\u0926\u093e": 1648,
  "\u2581second": 1649,
  "\u2581disbelievers": 1650,
  "\u2581using": 1651,
  "\u2581\u0924\u0930\u0940\u0915\u0947": 1652,
  "\u2581\u0932\u093e": 1653,
  "\u2581Noah": 1654,
  "\u2581\u092a\u093e\u0920": 1655,
  "\u2581guided": 1656,
  "\u2581Revelation": 1657,
  "\u2581members": 1658,
  "\u092d\u0940": 1659,
  "\u2581forgiveness": 1660,
  "\u2581\u092e\u0939\u093f\u092e\u093e": 1661,
  "\u2581meeting": 1662,
  "\u2581Corinthians": 1663,
  "\u2581\u092b\u093e\u092f\u0926\u093e": 1664,
  "\u2581\u0938\u0916\u094d\u0924": 1665,
  "\u2581\u096b": 1666,
  "\u2581\u092c\u0928\u0947": 1667,
  "\u2581\u091b\u094b\u091f\u0947": 1668,
  "\u2581forgive": 1669,
  "\u2581value": 1670,
  "\u2581\u0928\u0940\u0924\u093f\u0935\u091a\u0928": 1671,
  "\u2581\u0938\u0928\u094d\u0924\u093e\u0928": 1672,
  "\u2581\u0938\u0941\u0938\u092e\u093e\u091a\u093e\u0930": 1673,
  "\u2581\u0939\u093e\u0932\u0924": 1674,
  "\u2581unbelievers": 1675,
  "\u2581written": 1676,
  "\u2581\u091a\u0940\u091c\u093c\u094b\u0902": 1677,
  "\u2581\u0928\u092f\u0940": 1678,
  "\u2581\u0938\u091a\u094d\u091a\u093e": 1679,
  "\u2581sacrifice": 1680,
  "\u2581World": 1681,
  "\u2581\u092c\u0924\u093e": 1682,
  "\u2581\u0909\u0924\u094d\u0924\u092e": 1683,
  "\u258111.": 1684,
  "\u2581\u0938\u0942\u091a\u0928\u093e": 1685,
  "\u2581\u092d\u0935\u093f\u0937\u094d\u092f\u0935\u093e\u0923\u0940": 1686,
  "\u2581rest": 1687,
  "\u2581files": 1688,
  "\u258112.": 1689,
  "\u2581head": 1690,
  "\u2581morning": 1691,
  "\u2581\u092c\u0941\u0930\u0947": 1692,
  "\u2581Would": 1693,
  "\u25819.": 1694,
  "\u2581blessings": 1695,
  "\u2581\u0916\u0947\u0932": 1696,
  "@": 1697,
  "\u2581\u091c\u093e\u0930\u0940": 1698,
  "it": 1699,
  "\u2581ancient": 1700,
  "\u2581\u0905\u092d\u093f\u0937\u093f\u0915\u094d": 1701,
  "\u258113.": 1702,
  "\u2581\u0924\u0930\u092b\u093c": 1703,
  "\u2581\u092c\u0922\u093c\u093f\u092f\u093e": 1704,
  "\u2581\u0938\u092e\u0942\u0939": 1705,
  "\u2581Timothy": 1706,
  "\u2581\u0907\u0902\u0938\u093e\u0928\u094b\u0902": 1707,
  "\u2581\u0916\u093c\u092c\u0930": 1708,
  "\u092f\u093e": 1709,
  "\u2581\u0915\u093f\u0932": 1710,
  "\u094d\u0938": 1711,
  "\u2581taking": 1712,
  "\u2581\u0938\u094d\u0935\u0940\u0915\u093e\u0930": 1713,
  "\u2581\u0917\u093f\u0930\u094b\u0939": 1714,
  "\u2581\u0935\u093f\u0930\u094b\u0927": 1715,
  "\u2581\u092f\u0936\u093e\u092f\u093e\u0939": 1716,
  "\u2581once": 1717,
  "as": 1718,
  "\u2581sheep": 1719,
  "\u2581flesh": 1720,
  "\u2581listen": 1721,
  "\u2581\u0928\u093f\u0936\u093e\u0928\u093f\u092f\u093e\u0901": 1722,
  "\u2581\u092f\u0915\u093c\u0940\u0928": 1723,
  "\u2581\u0915\u092c": 1724,
  "\u2581\u0906\u0928\u0928\u094d\u0926": 1725,
  "\u2581fight": 1726,
  "\u2581\u0916\u0921\u093c\u093e": 1727,
  "\u0907\u0938": 1728,
  "\u2581attention": 1729,
  "\u2581\u0906\u0926\u092e": 1730,
  "\u2581kept": 1731,
  "\u2581Whe": 1732,
  "\u2581Law": 1733,
  "\u2581judgment": 1734,
  "\u2581\u0908\u0936\u094d": 1735,
  "\u258115,": 1736,
  "\u2581\u0905\u0917\u0932\u0947": 1737,
  "\u2581Creator": 1738,
  "\u2581Go": 1739,
  "\u2581commanded": 1740,
  "\u2581\u091c\u093c\u0941\u0932\u094d\u092e": 1741,
  "\u2581\u0939\u092e\u0938\u0947": 1742,
  "\u2581Select": 1743,
  "\u2581\u091a\u0941\u0915\u0940": 1744,
  "\u2581Joseph": 1745,
  "\u2581\u0928\u0938\u0940\u0939\u0924": 1746,
  "\u092f\u0939": 1747,
  "\u2581\u0928\u093f\u0915\u091f": 1748,
  "\u2581\u092a\u093e\u0924\u0947": 1749,
  "\u2581\u092c\u0939\u0928\u094b\u0902": 1750,
  "\u2581\u0936\u093e\u0902\u0924\u093f": 1751,
  "\u2581returned": 1752,
  "\u2581Un": 1753,
  "\u2581\u091b\u094b\u0921\u093c\u0915\u0930": 1754,
  "\u2581servant": 1755,
  "\u25816.": 1756,
  "\u2581\u092e\u093e\u0932\u093f\u0915": 1757,
  "\u2581\u091a\u0947\u0932\u094b\u0902": 1758,
  "\u2581\u092a\u0942\u0930\u094d\u0923": 1759,
  "\u2581\u092d\u0932\u0940": 1760,
  "\u2581situation": 1761,
  "\u2581\u0932\u0947\u0928\u093e": 1762,
  "\u2581\u0938\u093e\u092e\u093e\u0928\u094d\u092f": 1763,
  "\u2581\u0906\u0924\u0940": 1764,
  "\u2581Watchtower": 1765,
  "\u2581wealth": 1766,
  "\u2581needs": 1767,
  "\u2581Greek": 1768,
  "\u2581real": 1769,
  "\u2581wives": 1770,
  "\u2581\u0938\u093f\u0930": 1771,
  "\u258117.": 1772,
  "If": 1773,
  "\u2581sight": 1774,
  "\u2581\u0938\u0926\u0940": 1775,
  "\u2581\u091c\u094d\u092f\u093e\u0926\u093e": 1776,
  "\u2581control": 1777,
  "\u2581\u092d\u0935\u093f\u0937\u094d\u092f": 1778,
  "\u2581\u0906\u0915\u093e\u0930": 1779,
  "\u2581\u092a\u0941\u0930\u0941\u0937": 1780,
  "\u2581\u0938\u094d\u0915\u0942\u0932": 1781,
  "N": 1782,
  "\u2581\u0926\u093f\u0916\u093e\u0924\u093e": 1783,
  "\u2581\u092a\u0922\u093c\u093f\u090f": 1784,
  "\u258123": 1785,
  "k": 1786,
  "\u2581Did": 1787,
  "\u2581\u092e\u0939\u0940\u0928\u0947": 1788,
  "\u2581sun": 1789,
  "\u2581\u092a\u0930\u093f\u0923\u093e\u092e": 1790,
  "\u2581\u091c\u093c\u093f\u0915\u094d\u0930": 1791,
  "est": 1792,
  "f": 1793,
  "2": 1794,
  "\u2581lie": 1795,
  "\u2581\u0916\u093c\u093e\u0938": 1796,
  "\u258115.": 1797,
  "\u2581\u091c\u0939\u0928\u094d\u0928\u0941\u092e": 1798,
  "\u2581especially": 1799,
  "ic": 1800,
  "\u0905\u092a\u0928\u0940": 1801,
  "\u2581\u091c\u094b\u0921\u093c\u0947\u0902": 1802,
  "\u2581\u0930\u094b\u0915": 1803,
  "\u2581\u0906\u0913": 1804,
  "\u2581\u092a\u0939\u0941\u0901\u091a": 1805,
  "\u2581\u0938\u0947\u0935\u0915": 1806,
  "\u2581\u092a\u093e\u090f": 1807,
  "\u2581Egypt": 1808,
  "\u2581\u092a\u0938\u0902\u0926": 1809,
  "\u2581voice": 1810,
  "\u2581reading": 1811,
  "\u2581server": 1812,
  "\u2581\u0916\u093e\u0924\u093e": 1813,
  "\u2581\u0926\u0947\u0915\u0930": 1814,
  "\u2581evidence": 1815,
  "\u2581god": 1816,
  "It": 1817,
  "\u2581Hereafter": 1818,
  "\u2581\u092f\u0942\u0938\u0941\u092b": 1819,
  "\u2581\u092a\u094d\u0930\u0924\u094d\u092f\u0947\u0915": 1820,
  "\u2581\u0938\u093e\u0924": 1821,
  "\u2581baptized": 1822,
  "\u2581\u0906\u0926\u0947\u0936": 1823,
  "\u2581\u092a\u0936\u094d\u091a\u093e\u0924": 1824,
  "\u2581\u0932\u093e\u0917\u0942": 1825,
  "\u258116.": 1826,
  "\u2581\u092c\u0947": 1827,
  "\u2581\u0932\u0917": 1828,
  "\u2581poor": 1829,
  "\u2581moved": 1830,
  "\u2581school": 1831,
  "\u2581\u0928\u093f\u092f\u092e": 1832,
  "\u2581meet": 1833,
  "\u2581fall": 1834,
  "\u0938\u0947": 1835,
  "\u2581cast": 1836,
  "\u2581walk": 1837,
  "\u2581pay": 1838,
  "\u2581\u092c\u094b\u091d": 1839,
  "\u25813,": 1840,
  "\u2581tree": 1841,
  "\u2581window": 1842,
  "\u2581\u092e\u093e\u0930\u094d\u0917\u0926\u0930\u094d\u0936\u0928": 1843,
  "\u2581matters": 1844,
  "\u2581\u0924\u0925\u093e": 1845,
  "\u2581\u0915\u093c\u092f\u093e\u092e\u0924": 1846,
  "\u2581feet": 1847,
  "\u2581followers": 1848,
  "\u2581\u0938\u0915\u0947\u0902": 1849,
  "\u2581\u0938\u0930": 1850,
  "\u2581divine": 1851,
  "and": 1852,
  "\u2581\u0907\u0938\u094d\u0930\u093e\u090f\u0932\u093f\u092f\u094b\u0902": 1853,
  "\u2581teach": 1854,
  "\u2581\u091c\u093c\u094b\u0930": 1855,
  "\u2581Luke": 1856,
  "\u2581friend": 1857,
  "\u2581\u091a\u0932\u094b": 1858,
  "\u2581serving": 1859,
  "\u2581\u0916\u093e\u0928\u093e": 1860,
  "\u2581Since": 1861,
  "\u2581\u0936\u0915\u093c": 1862,
  "\u2581difficult": 1863,
  "\u2581\u0938\u093e\u0932\u094b\u0902": 1864,
  "\u2581\u092e\u093f\u0932\u0947": 1865,
  "\u2581Paradise": 1866,
  "\u2581\u0905\u0928\u0941\u0917\u094d\u0930\u0939": 1867,
  "\u2581perfect": 1868,
  "\u2581\u092b\u0947\u0930": 1869,
  "\u2581\u0906\u0938\u093e\u0928": 1870,
  "\u2581\u0930\u094b\u091c\u093c\u0940": 1871,
  "\u2581move": 1872,
  "\u2581allow": 1873,
  "\u2581local": 1874,
  "\u2581\u0909\u092e\u094d\u0930": 1875,
  "\u0915\u093f": 1876,
  "\u093f\u092f\u093e\u0901": 1877,
  "\u2581\u091c\u093c\u093f\u092e\u094d\u092e\u0947\u0926\u093e\u0930\u0940": 1878,
  "\u2581Thou": 1879,
  "\u2581wanted": 1880,
  "\u2581\u0926\u0940\u0928": 1881,
  "\u2581\u092e\u0939\u093e\u0928": 1882,
  "\u2581\u0935\u093e\u0915\u0908": 1883,
  "w": 1884,
  "\u2581slave": 1885,
  "\u2581\u0938\u0941\u0932\u0948\u092e\u093e\u0928": 1886,
  "\u2581past": 1887,
  "\u2581country": 1888,
  "\u2581deal": 1889,
  "\u2581thinking": 1890,
  "\u2581\u092d\u0947\u091c": 1891,
  "\u2581\u0926\u0940\u091c\u093f\u090f": 1892,
  "\u2581\u0935\u093f\u0915\u0932\u094d\u092a": 1893,
  "\u2581rather": 1894,
  "\u0909\u0938": 1895,
  "\u2581prayers": 1896,
  "\u2581\u0906\u092e": 1897,
  "\u2581behold": 1898,
  "\u2581\u096c": 1899,
  "\u2581\u092e\u0947\u0932": 1900,
  "\u2581\u0938\u0940\u0927\u0947": 1901,
  "\u2581\u092a\u0921\u093c\u0924\u093e": 1902,
  "\u2581\u0926\u0941\u0937\u094d\u091f": 1903,
  "].": 1904,
  "\u2581\u092c\u094b\u0932": 1905,
  "\u2581\u091c\u093c\u0930\u093e": 1906,
  "\u2581five": 1907,
  "\u2581everlasting": 1908,
  "\u2581\u0926\u093f\u0916\u093e\u0928\u0947": 1909,
  "\u2581followed": 1910,
  "My": 1911,
  "\u2581special": 1912,
  "\u2581\u091c\u093e\u0901\u091a": 1913,
  "\u0903": 1914,
  "\u2581health": 1915,
  "\u2581\u0930\u0916\u0940": 1916,
  "\u2581\u091c\u0932": 1917,
  "\u2581\u0926\u092f\u093e": 1918,
  "\u2581\u0907\u0924\u093f\u0939\u093e\u0938": 1919,
  "\u2581suffering": 1920,
  "\u2581\u092c\u093e\u0935\u091c\u0942\u0926": 1921,
  "\u2581While": 1922,
  "\u2581\u091c\u092e\u093e": 1923,
  "\u2581gods": 1924,
  "\u2581\u0967\u096b": 1925,
  "\u2581P": 1926,
  "\u2581\u0916\u094b\u0932": 1927,
  "U": 1928,
  "\u2581Does": 1929,
  "for": 1930,
  "\u2581\u0926\u094b\u092c\u093e\u0930\u093e": 1931,
  "\u2581judge": 1932,
  "\u2581\u0905\u0902\u0924": 1933,
  "\u2581\u0938\u0939\u093e\u092f\u0915": 1934,
  "\u2581resurrection": 1935,
  "\u2581thereof": 1936,
  "\u2581\u0938\u094d\u0924\u094d\u0930\u093f\u092f\u094b\u0902": 1937,
  "\u2581easy": 1938,
  "\u2581cut": 1939,
  "\u2581desires": 1940,
  "\u2581\u0935\u093e\u0938\u094d\u0924\u0935": 1941,
  "\u25818:": 1942,
  "\u2581caused": 1943,
  "\u2581\u092e\u0915\u0938\u0926": 1944,
  "\u2581\u092d\u094b\u091c\u0928": 1945,
  "\u2581\u0938\u0930\u0915\u0936": 1946,
  "\u2581\u0918\u0930\u094b\u0902": 1947,
  "\u2581\u092a\u094d\u0930\u0947\u0930\u093f\u0924\u094b\u0902": 1948,
  "\u2581belongs": 1949,
  "\u2581\u0926\u0942\u0938\u0930\u093e": 1950,
  "ness": 1951,
  "\u2581Acts": 1952,
  "\u2581\u0930\u0916\u0947": 1953,
  "\u2581Consider": 1954,
  "\u2581failed": 1955,
  "\u2581\u0921\u093f\u0938\u094d\u0915": 1956,
  "\u2581America": 1957,
  "\u0935\u093e\u0932\u0947": 1958,
  "\u2581manifest": 1959,
  "\u2581\u0936\u0941\u0930\u0942\u0906\u0924": 1960,
  "\u2581\u096e": 1961,
  "\u2581R": 1962,
  "\u2581\u0938\u0947\u0935\u0915\u094b\u0902": 1963,
  "God": 1964,
  "\u2581action": 1965,
  "\u2581\u092e\u091c\u093c\u093e": 1966,
  "\u2581\u0939\u093f\u092e\u094d\u092e\u0924": 1967,
  "\u2581available": 1968,
  "\u2581gone": 1969,
  "\u2581answered": 1970,
  "\u2581;": 1971,
  "\u2581T": 1972,
  "\u2581married": 1973,
  "\u2581un": 1974,
  "\u2581Although": 1975,
  "\u2581\u0938\u092e\u091d\u093e": 1976,
  "\u2581\u0967\u0966": 1977,
  "\u2581reach": 1978,
  "\u258133": 1979,
  "\u2581\u0926\u0943\u0937\u094d\u091f\u093f": 1980,
  "\u2581\u092a\u093e\u0915": 1981,
  "\u2581contact": 1982,
  "\u2581similar": 1983,
  "\u2581\u092e\u0947": 1984,
  "\u2581likely": 1985,
  "\u25818,": 1986,
  "\u2581start": 1987,
  "\u2581\u0916\u093c\u0941\u0926": 1988,
  "\u2581M": 1989,
  "\u2581attitude": 1990,
  "\u2581project": 1991,
  "\u2581\u092b\u0941\u091f\u0928\u094b\u091f": 1992,
  "\u2581\u0905\u0935\u0936\u094d\u092f": 1993,
  "\u258115:": 1994,
  "\u2581\u092c\u0924\u093e\u0924\u0940": 1995,
  "\u2581\u0928\u093f\u0936\u093e\u0928\u0940": 1996,
  "\u092a\u0930\u092e\u0947\u0936\u094d": 1997,
  "\u258126": 1998,
  "\u2581\u0906\u0936\u0940\u0937": 1999,
  "\u2581happened": 2000,
  "\u2581Add": 2001,
  "\u2581offer": 2002,
  "\u2581draw": 2003,
  "\u2581\u0926\u093f\u0916\u093e\u0924\u0947": 2004,
  "Do": 2005,
  "\u2581\u092e\u093e\u0930\u0947": 2006,
  "\u2581\u092d\u0935\u0928": 2007,
  "\u2581\u091c\u093e\u0928\u0928\u0947": 2008,
  "\u0915\u093e": 2009,
  "\u2581\u0907\u0924\u0928\u0940": 2010,
  "\u2581\u0924\u0938\u0935\u0940\u0930\u0947\u0902": 2011,
  "\u2581months": 2012,
  "\u2581\u092f\u0939\u0942\u0926\u093f\u092f\u094b\u0902": 2013,
  "\u2581further": 2014,
  "\u2581\u092a\u0938": 2015,
  "\u2581\u092e\u093f\u091f\u094d\u091f\u0940": 2016,
  "\u2581\u0932\u094c\u091f": 2017,
  "en": 2018,
  "\u2581single": 2019,
  "\u2581states": 2020,
  "\u2581Resurrection": 2021,
  "\u2581justice": 2022,
  "\u2581\u0909\u092e\u094d\u092e\u0940\u0926": 2023,
  "\u2581besides": 2024,
  "\u2581current": 2025,
  "\u2581saved": 2026,
  "\u2581type": 2027,
  "\u093f\u0915": 2028,
  "\u2581showed": 2029,
  "\u2581\u0932\u0947\u0924\u093e": 2030,
  "\u2581F": 2031,
  "\u2581happiness": 2032,
  "\u2581\u092a\u093e\u0932\u0928": 2033,
  "\u2581month": 2034,
  "\u2581large": 2035,
  "\u2581\u0932\u093e\u092d": 2036,
  "\u2581ten": 2037,
  "\u2581\u091c\u0932\u094d\u0926\u0940": 2038,
  "\u2581enemies": 2039,
  "\u2581\u091c\u0928": 2040,
  "\u2581\u091d\u0941\u0920\u0932\u093e\u092f\u093e": 2041,
  "\u2581\u0936\u0916\u093c\u094d\u0936": 2042,
  "\u2581File": 2043,
  "\u2581source": 2044,
  "\u2581Today": 2045,
  "\u2581inspired": 2046,
  "\u2581\u0906\u092f\u0924\u0947\u0902": 2047,
  "\u2581accepted": 2048,
  "\u2581sister": 2049,
  "\u2581shows": 2050,
  "\u2581mountains": 2051,
  "\u2581\u0924\u0940\u092e\u0941\u0925\u093f\u092f\u0941\u0938": 2052,
  "\u2581display": 2053,
  "\u2581write": 2054,
  "\u2581feelings": 2055,
  "\u2581\u0935\u094b": 2056,
  "\u2581sound": 2057,
  "\u2581\u0907\u092c\u093e\u0926\u0924": 2058,
  "\u2581\u0916\u093c\u0930\u094d\u091a": 2059,
  "\u2581\u091a\u0932\u0928\u0947": 2060,
  "He": 2061,
  "ation": 2062,
  "\u2581\u0921\u0930\u0924\u0947": 2063,
  "\u2581\u092a\u0939\u091a\u093e\u0928": 2064,
  "\u0926\u0941\u0928\u093f\u092f\u093e": 2065,
  "\u2581United": 2066,
  "\u2581\u0924\u094c\u092c\u093e": 2067,
  "\u2581changes": 2068,
  "\u2581\u091c\u0948\u0938\u0940": 2069,
  "\u2581kill": 2070,
  "\u2581\u092f\u0941": 2071,
  "\u2581spend": 2072,
  "\u2581thousand": 2073,
  "\u2581form": 2074,
  "\u2581including": 2075,
  "\u2581line": 2076,
  "\u2581\u0906\u090f\u0917\u093e": 2077,
  "\u0905\u0932\u094d\u0932\u093e\u0939": 2078,
  "\u2581Romans": 2079,
  "\u2581K": 2080,
  "\u2581Error": 2081,
  "\u2581least": 2082,
  "\u2581painful": 2083,
  "\u2581gain": 2084,
  "\u2581\u092e\u093e\u0928\u093e": 2085,
  "\u2581\u092e\u0941\u091d\u0938\u0947": 2086,
  "\u0938\u092c": 2087,
  "\u0939\u093f\u0938\u093e\u092c": 2088,
  "\u2581wish": 2089,
  "\u2581James": 2090,
  "\u2581fully": 2091,
  "\u2581state": 2092,
  "\u2581\u0907\u0915\u091f\u094d\u0920\u093e": 2093,
  "\u2581\u091c\u093f\u0938\u0915\u094b": 2094,
  "\u2581\u0938\u0940\u0916": 2095,
  "What": 2096,
  "\u2581mail": 2097,
  "\u2581\u0936\u093e\u0938\u094d\u0924\u094d\u0930": 2098,
  "Allah": 2099,
  "\u2581\u092c\u0928\u093e\u0915\u0930": 2100,
  "\u2581\u0938\u092d\u093e\u0913\u0902": 2101,
  "\u2581Hell": 2102,
  "\u2581lived": 2103,
  "\u2581\u0936\u093e\u0928\u094d\u0924\u093f": 2104,
  "\u2581\u092c\u0928\u0940": 2105,
  "\u2581problem": 2106,
  "\u2581\u0938\u092c\u0915\u094b": 2107,
  "\u2581position": 2108,
  "\u2581\u092e\u0947\u0939\u0928\u0924": 2109,
  "\u2581blessed": 2110,
  "\u2581led": 2111,
  "all": 2112,
  "\u2581\u0935\u0948\u0938\u0947": 2113,
  "\u2581\u092e\u0902\u0921\u0932\u0940": 2114,
  "\u2581passed": 2115,
  "3": 2116,
  "\u2581perhaps": 2117,
  "\u2581\u092a\u0922\u093c\u0928\u0947": 2118,
  "\u2581\u0926\u0943\u0936\u094d\u092f": 2119,
  "\u2581\u092a\u094d\u0930\u0915\u093e\u0936\u093f\u0924\u0935\u093e\u0915\u094d\u092f": 2120,
  "\u2581\u0935\u0939\u093e\u0902": 2121,
  "\u2581sisters": 2122,
  "\u2581\u092a\u093e\u090f\u0901\u0917\u0947": 2123,
  "\u2581Saul": 2124,
  "\u2581\u0939\u0943\u0926\u092f": 2125,
  "\u2581\u0926\u0941\u0906": 2126,
  "\u2581\u0926\u0938": 2127,
  "\u2581\u0967\u0968": 2128,
  "\u2581regarding": 2129,
  "\u2581towards": 2130,
  "\u2581principles": 2131,
  "\u2581spoke": 2132,
  "\u2581term": 2133,
  "\u2581hundred": 2134,
  "\u2581speaking": 2135,
  "\u2581\u0926": 2136,
  "\u25819:": 2137,
  "\u2581involved": 2138,
  "\u2581history": 2139,
  "\u2581prepared": 2140,
  "\u2581sky": 2141,
  "\u2581\u0935\u093e\u092f\u0926\u093e": 2142,
  "\u2581blessing": 2143,
  "\u2581\u0915\u093e\u092b\u093c\u093f\u0930": 2144,
  "Y": 2145,
  "\u2581Well": 2146,
  "\u2581\u092d\u093e\u0930\u0940": 2147,
  "\u2581(%": 2148,
  "\u2581task": 2149,
  "\u25815,": 2150,
  "\u2581Rather": 2151,
  "\u2581Evolution": 2152,
  "\u2581stay": 2153,
  "\u2581\u0916\u094b\u0932\u0947\u0902": 2154,
  "\u2581fruit": 2155,
  "\u2581public": 2156,
  "\u2581based": 2157,
  "\u2581complete": 2158,
  "\u2581enough": 2159,
  "\u2581mentioned": 2160,
  "\u2581\u0927\u0928": 2161,
  "\u0915\u093c\u092f\u093e\u092e\u0924": 2162,
  "\u2581\u0932\u0942\u0915\u093e": 2163,
  "\u2581\u0935\u094d\u092f\u0935\u0939\u093e\u0930": 2164,
  "\u25819,": 2165,
  "\u2581\u0906\u0908": 2166,
  "\u2581\u0918\u091f\u0928\u093e": 2167,
  "\u2581\u092e\u0941\u0902\u0939": 2168,
  "\u2581\u092c\u0928\u093e\u090f\u0901": 2169,
  "\u2581\u092c\u0932\u093f\u0926\u093e\u0928": 2170,
  "\u2581Babylon": 2171,
  "h": 2172,
  "\u2581Hebrew": 2173,
  "\u2581mighty": 2174,
  "\u2581\u0927\u0940\u0930\u091c": 2175,
  "\u2581\u0926\u0941\u0903\u0916": 2176,
  "\u2581wait": 2177,
  "\u2581harm": 2178,
  "\u2581See": 2179,
  "\u2581offering": 2180,
  "\u2581\u091b\u094b\u091f\u0940": 2181,
  "\u2581\u0926\u0947\u0916\u0947\u0902": 2182,
  "\u2581Open": 2183,
  "\u2581\u0928\u092c\u0940": 2184,
  "\u2581\u0938\u0902\u0917\u0920\u0928": 2185,
  "\u2581\u0939\u093e\u091c\u093c\u093f\u0930": 2186,
  "\u091f": 2187,
  "\u0939\u0930": 2188,
  "\u2581Daniel": 2189,
  "\u2581Mary": 2190,
  "\u2581\u0909\u0926\u094d\u0927\u093e\u0930": 2191,
  "us": 2192,
  "\u2581honor": 2193,
  "\u258131": 2194,
  "\u2581lies": 2195,
  "\u2581shal": 2196,
  "\u2581\u092c\u093e\u0917\u093c": 2197,
  "\u2581\u091d\u0942\u0920\u0947": 2198,
  "\u2581\u092e\u093f\u0932\u0915\u0930": 2199,
  "\u2581\u0915\u0926\u092e": 2200,
  "\u2581\u092e\u0941\u0916\u094d\u092f": 2201,
  "\u2581\u0935\u093e\u0932\u0940": 2202,
  "\u2581\u0905\u092f\u094d\u092f\u0942\u092c": 2203,
  "\u2581\u091c\u093c\u094d\u092f\u093e\u0926\u093e\u0924\u0930": 2204,
  "\u2581Like": 2205,
  "\u2581\u0905\u0928\u094d\u0924": 2206,
  "\u0939": 2207,
  "\u2581\u0905\u0928\u0941\u0935\u093e\u0926": 2208,
  "\u25816,": 2209,
  "\u2581anger": 2210,
  "\u2581\u0906\u0935\u093e\u091c\u093c": 2211,
  "\u2581\u096d": 2212,
  "\u2581Footnote": 2213,
  "\u2581\u0967\u0967": 2214,
  "\u2581myself": 2215,
  "\u2581\u092d\u0940\u0921\u093c": 2216,
  "\u2581due": 2217,
  "\u2581gift": 2218,
  "\u258118.": 2219,
  "\u2581\u0905\u0928\u0941\u092d\u0935": 2220,
  "\u2581\u0920\u093f\u0915\u093e\u0928\u093e": 2221,
  "\u2581\u0938\u0941\u0928\u0928\u0947": 2222,
  "\u2581speech": 2223,
  "\u2581\u0905\u0938\u0932": 2224,
  "\u2581revelations": 2225,
  "\u2581destroy": 2226,
  "\u2581loved": 2227,
  "\u258127": 2228,
  "\u2581daughter": 2229,
  "\u2581changed": 2230,
  "\u2581killed": 2231,
  "\u2581\u0939\u093e\u0925\u094b\u0902": 2232,
  "\u2581\u092c\u093f\u0932\u094d\u0915\u0941\u0932": 2233,
  "\u2581\u0908\u092e\u093e\u0928\u0926\u093e\u0930\u094b\u0902": 2234,
  "\u2581started": 2235,
  "\u2581interest": 2236,
  "\u2581organization": 2237,
  "\u2581\u092b\u093c\u0948\u0938\u0932\u093e": 2238,
  "\u2581\u0905\u092e\u0947\u0930\u093f\u0915\u093e": 2239,
  "\u2581\u092a\u0941\u0924\u094d\u0930": 2240,
  "\u2581cities": 2241,
  "\u2581verses": 2242,
  "\u2581\u0938\u0939\u0947\u091c\u0947\u0902": 2243,
  "\u2581\u092e\u093e\u0928\u0928\u093e": 2244,
  "\u2581\u0917\u093c\u0930\u091c\u093c": 2245,
  "\u2581\u0938\u0902\u0917": 2246,
  "\u2581\u0938\u094c": 2247,
  "\u2581considered": 2248,
  "\u2581longer": 2249,
  "\u2581\u091c\u093f\u0928\u092e\u0947\u0902": 2250,
  "\u2581\u092c\u0947\u091f\u093e": 2251,
  "\u2581\u091c\u093c\u093e\u0932\u093f\u092e": 2252,
  "\u2581either": 2253,
  "\u2581priests": 2254,
  "\u2581six": 2255,
  "\u2581\u092a\u094d\u0930\u091c\u093e": 2256,
  "\u2581chosen": 2257,
  "\u2581prophecy": 2258,
  "\u2581\u0916\u094d\u092f\u093e\u0932": 2259,
  "\u2581\u091a\u0947\u0924\u093e\u0935\u0928\u0940": 2260,
  "\u2581\u092e\u093e\u0901\u0917": 2261,
  "\u2581hell": 2262,
  "\u2581\u0938\u092c\u094d\u0930": 2263,
  "\u2581\u096f": 2264,
  "\u2581places": 2265,
  "\u2581\u092e\u093e\u0928\u0928\u0947": 2266,
  "\u0905": 2267,
  "\u2581\u0924\u0941\u0932\u0928\u093e": 2268,
  "\u091c\u092c": 2269,
  "\u2581itself": 2270,
  "\u2581search": 2271,
  "\u092f\u0939\u094b\u0935\u093e": 2272,
  "\u2581\u0932\u0915\u094d\u0937\u094d\u092f": 2273,
  "at": 2274,
  "\u2581material": 2275,
  "\u2581spiritually": 2276,
  "\u2581\u0926\u0947\u0916\u0924\u093e": 2277,
  "\u2581\u0935\u093e": 2278,
  "\u2581else": 2279,
  "\u25814,": 2280,
  "\u2581\u090f\u0935\u094b\u0932\u094d\u092f\u0942\u0936\u0928": 2281,
  "\u2581\u0935\u093f\u0936\u094d\u0935\u093e\u0938": 2282,
  "\u2581Truth": 2283,
  "\u2581\u0915\u093e\u092b\u093c\u0940": 2284,
  "\u0939\u093e\u0932\u0949\u0915\u093f": 2285,
  "\u2581\u0916\u093e\u0924\u0947": 2286,
  "\u2581\u092c\u0928\u0928\u0947": 2287,
  "\u25812,": 2288,
  "\u2581simply": 2289,
  "\u2581\u0917\u093f\u0930": 2290,
  "\u2581\u092a\u0939\u0932\u093e": 2291,
  "\u2581\u0936\u0941\u0926\u094d\u0927": 2292,
  "\u2581art": 2293,
  "\u2581gold": 2294,
  "\u2581View": 2295,
  "\u2581enemy": 2296,
  "\u093e\u0924": 2297,
  "\u2581clean": 2298,
  "\u2581shown": 2299,
  "\u091c": 2300,
  "\u2581rule": 2301,
  "\u2581\u0915\u093e\u0928": 2302,
  "5": 2303,
  "\u2581\u0938\u0926\u093e": 2304,
  "\u2581\u092a\u0941\u0938\u094d\u0924\u0915": 2305,
  "\u2581\u0920\u0939\u0930\u093e\u092f\u093e": 2306,
  "\u2581\u0938\u092e\u0941\u0926\u094d\u0930": 2307,
  "\u2581Jacob": 2308,
  "\u2581comfort": 2309,
  "\u2581everyone": 2310,
  "\u2581\u091c\u093e\u0913\u0917\u0947": 2311,
  "\u2581\u092c\u0932": 2312,
  "\u2581presence": 2313,
  "\u2581\u091c\u0935\u093e\u0928": 2314,
  "\u2581\u092a\u0930\u0940\u0915\u094d\u0937\u093e": 2315,
  "\u2581\u092e\u0947\u0939\u0930\u092c\u093e\u0928": 2316,
  "\u2581Mark": 2317,
  "\u2581choose": 2318,
  "\u2581didn": 2319,
  "\u2581priest": 2320,
  "\u2581\u0938\u092e\u091d\u0928\u0947": 2321,
  "\u2581Save": 2322,
  "\u2581born": 2323,
  "\u2581\u092d\u0942\u092e\u093f": 2324,
  "\u2581Messengers": 2325,
  "\u2581\u0926\u093e\u0928": 2326,
  "\u2581\u0935\u0948\u0938\u093e": 2327,
  "\u2581grow": 2328,
  "\u2581\u0928\u093f\u0936\u094d": 2329,
  "\u2581\u0930\u0939\u0924\u0940": 2330,
  "\u2581\u091c\u093c\u092c\u0930\u0926\u0938\u094d\u0924": 2331,
  "\u2581effect": 2332,
  "\u2581suffer": 2333,
  "\u2581\u0917\u0940\u0924": 2334,
  "\u2581\u0932\u093f\u0916\u0940": 2335,
  "\u2581individuals": 2336,
  "\u2581\u0909\u0938\u092a\u0930": 2337,
  "\u258111:": 2338,
  "\u2581\u0928\u093f\u0936\u094d\u091a\u093f\u0924": 2339,
  "\u2581\u092a\u0939\u093e\u0921\u093c": 2340,
  "\u2581\u0938\u092e\u0938\u094d\u092f\u093e": 2341,
  "\u092a\u093f": 2342,
  "\u2581delivered": 2343,
  "\u2581\u0907\u0928\u092e\u0947\u0902": 2344,
  "\u2581patient": 2345,
  "\u2581\u0916\u0924\u094d\u092e": 2346,
  "\u2581\u0928\u0908": 2347,
  "\u2581powerful": 2348,
  "\u2581\u0915\u0941\u0930\u093f\u0928\u094d\u0925\u093f\u092f\u094b\u0902": 2349,
  "\u2581carry": 2350,
  "\u2581Just": 2351,
  "\u2581Where": 2352,
  "\u2581Children": 2353,
  "\u2581\u0918\u0921\u093c\u0940": 2354,
  "\u2581deep": 2355,
  "\u2581working": 2356,
  "\u2581\u092a\u093e\u092f\u0928\u093f\u092f\u0930": 2357,
  "\u258128": 2358,
  "\u2581\u0917\u0941\u092e\u0930\u093e\u0939\u0940": 2359,
  "\u2581\u0930\u093f\u092a\u094b\u0930\u094d\u091f": 2360,
  "\u2581Devil": 2361,
  "\u2581warning": 2362,
  "\u2581Hebrews": 2363,
  "\u2581\u092a\u094d\u0930\u0915\u093e\u0936": 2364,
  "\u2581\u092d\u0947\u0902\u091f": 2365,
  "\u2581Quran": 2366,
  "\u2581chastisement": 2367,
  "\u2581program": 2368,
  "\u2581\u0928\u0939\u0940": 2369,
  "\u2581Wise": 2370,
  "\u2581\u0926\u0941\u0916": 2371,
  "\u2581\u0932\u093e\u0928\u0947": 2372,
  "\u2581According": 2373,
  "\u2581destruction": 2374,
  "\u2581\u0916\u093f\u0932\u093e\u092b": 2375,
  "\u2581\u092a\u094d\u0930\u0915\u091f": 2376,
  "\u091c\u093c": 2377,
  "\u2581\u0907\u092c\u094d\u0930\u093e\u0939\u0940\u092e": 2378,
  "\u2581key": 2379,
  "\u0928\u0947\u0935\u093e\u0932\u0947": 2380,
  "\u2581etc": 2381,
  "\u2581\u092c\u0924\u093e\u0924\u093e": 2382,
  "\u0917": 2383,
  "\u2581unjust": 2384,
  "\u2581\u0936\u093e\u090a\u0932": 2385,
  "\u2581\u0927\u0928\u094d\u092f\u0935\u093e\u0926": 2386,
  "--": 2387,
  "\u2581firm": 2388,
  "\u2581godly": 2389,
  "\u2581Dur": 2390,
  "\u2581build": 2391,
  "\u2581qualities": 2392,
  "\u093f\u0902\u0917": 2393,
  "\u2581letter": 2394,
  "\u2581\u092a\u0902\u091a\u093e\u0902\u0917": 2395,
  "\u2581\u0932\u094b\u0921": 2396,
  "\u2581\u0927\u0930\u094d\u092e\u0940": 2397,
  "\u2581\u092e\u093f\u091f\u093e\u090f\u0901": 2398,
  "\u258117:": 2399,
  "\u2581names": 2400,
  "\u0939\u0947": 2401,
  "\u2581\u0967\u0969": 2402,
  "\u2581events": 2403,
  "\u2581\u092a\u0930\u093f\u0935\u0930\u094d\u0924\u0928": 2404,
  "\u2581\u0938\u0941\u0930\u0915\u094d\u0937\u093f\u0924": 2405,
  "\u2581\u0906\u0927\u093e\u0930": 2406,
  "\u2581\u0916\u0942\u092c": 2407,
  "G": 2408,
  "\u092b\u093f\u0930": 2409,
  "\u258113:": 2410,
  "\u2581date": 2411,
  "\u2581instead": 2412,
  "\u2581\u0905\u092e\u0930\u0940\u0915\u093e": 2413,
  "\u2581pages": 2414,
  "\u2581\u0924\u0930\u0940\u0915\u093e": 2415,
  "\u2581messengers": 2416,
  "\u2581\u0915\u0930\u0942\u0902\u0917\u093e": 2417,
  "\u2581Use": 2418,
  "\u2581common": 2419,
  "\u0921": 2420,
  "\u2581wonderful": 2421,
  "\u2581\u0916\u093c\u0942\u092c": 2422,
  "\u2581measure": 2423,
  "\u2581provision": 2424,
  "\u2581\u0926\u093f\u0932\u091a\u0938\u094d\u092a\u0940": 2425,
  "\u2581seem": 2426,
  "\u2581serious": 2427,
  "\u258132": 2428,
  "\u258140": 2429,
  "\u0926\u093e\u0930": 2430,
  "\u2581brings": 2431,
  "\u2581Society": 2432,
  "\u2581Watch": 2433,
  "\u2581mouth": 2434,
  "\u2581seeking": 2435,
  "\u2581\u0938\u092e\u094d\u092e\u093e\u0928": 2436,
  "\u2581clearly": 2437,
  "\u2581\u0915\u0943\u092a\u093e": 2438,
  "\u092f\u0926\u093f": 2439,
  "\u2581wants": 2440,
  "\u2581examples": 2441,
  "\u2581\u091a\u093e\u0930\u094b\u0902": 2442,
  "\u2581\u0935\u093e\u091a\u093e": 2443,
  "\u2581THE": 2444,
  "\u2581Africa": 2445,
  "\u2581increase": 2446,
  "\u2581souls": 2447,
  "\u2581\u091c\u0928\u094d\u092e": 2448,
  "\u2581\u0926\u0930\u0905\u0938\u0932": 2449,
  "\u2581\u0967\u096a": 2450,
  "\u0917\u093c\u093e\u0932\u093f\u092c": 2451,
  "\u2581\u0938\u094d\u0930\u094b\u0924": 2452,
  "\u258119.": 2453,
  "\u2581ago": 2454,
  "\u2581held": 2455,
  "\u2581\u0932\u0917\u092d\u0917": 2456,
  "\u2581\u091a\u093f\u0924\u094d\u0930": 2457,
  "\u2581\u092a\u093f\u091b\u0932\u0947": 2458,
  "\u2581\u092c\u0941\u0926\u094d\u0927\u093f\u092e\u093e\u0928": 2459,
  "\u2581\u0938\u0941\u0928\u0924\u0947": 2460,
  "is": 2461,
  "\u2581hast": 2462,
  "\u2581\u0938\u0915\u094d\u0930\u093f\u092f": 2463,
  "\u2581\u0939\u0930\u093e\u092e": 2464,
  "\u2581beyond": 2465,
  "\u2581Life": 2466,
  "\u2581takes": 2467,
  "V": 2468,
  "\u2581\u092a\u094d\u0930\u093e\u091a\u0940\u0928\u094b\u0902": 2469,
  "\u2581H": 2470,
  "\u2581less": 2471,
  "\u2581period": 2472,
  "\u2581\u092e\u093e\u092c\u0942\u0926": 2473,
  "\u2581blind": 2474,
  "\u2581fulfilled": 2475,
  "\u2581G": 2476,
  "\u2581\u092a\u093e\u0930": 2477,
  "\u2581\u092a\u0942\u0930\u094d\u0935": 2478,
  "\u2581\u092c\u0922\u093c\u093e": 2479,
  "v": 2480,
  "\u2581effort": 2481,
  "\u2581tried": 2482,
  "\u2581\u092f\u094b\u0902": 2483,
  "\u2581\u0938\u092c\u0942\u0924": 2484,
  "\u2581opened": 2485,
  "\u2581\u0915\u094d\u0930\u094b\u0927": 2486,
  "\u2581angel": 2487,
  "\u2581\u091c\u093c\u092e\u093e\u0928\u0947": 2488,
  "il": 2489,
  "\u2581\u091c\u093c\u0930\u0941\u0930": 2490,
  "\u2581Witness": 2491,
  "\u2581\u092a\u094d\u0930\u092e\u093e\u0923\u092a\u0924\u094d\u0930": 2492,
  "\u0936": 2493,
  "\u2581Great": 2494,
  "\u2581circumstances": 2495,
  "\u2581re": 2496,
  "\u0938\u0940": 2497,
  "\u2581\u0938\u093e\u0930\u093e": 2498,
  "\u2581meaning": 2499,
  "\u2581\u092c\u093e\u0932": 2500,
  "\u2581\u091a\u093e\u0932": 2501,
  "\u2581\u092a\u094d\u0930\u093e\u0923": 2502,
  "\u2581\u092c\u0940\u092e\u093e\u0930\u0940": 2503,
  "\u2581established": 2504,
  "\u2581test": 2505,
  "\u2581rejected": 2506,
  "\u2581\u0927\u093e\u0930\u094d\u092e\u093f\u0915": 2507,
  "\u2581May": 2508,
  "\u2581True": 2509,
  "\u2581\u0924\u093e\u0915\u0924": 2510,
  "\u2581\u0935\u0938\u094d\u0924\u0941": 2511,
  "\u2581\u0938\u0926\u0938\u094d\u092f": 2512,
  "\u2581\u0917\u0941\u091c\u093c\u0930": 2513,
  "\u2581\u092c\u093e\u0924\u091a\u0940\u0924": 2514,
  "\u2581aware": 2515,
  "\u2581guard": 2516,
  "\u2581named": 2517,
  "\u2581Message": 2518,
  "\u2581taste": 2519,
  "\u2581\u0915\u0948\u0938\u0940": 2520,
  "\u2581equal": 2521,
  "\u2581\u092c\u091a": 2522,
  "Read": 2523,
  "\u0932\u094b\u0917\u094b\u0902": 2524,
  "\u2581\u092d\u0942\u0932": 2525,
  "\u2581\u092a\u094d\u0930\u0935\u0947\u0936": 2526,
  "\u2581Pictures": 2527,
  "\u2581\u0914\u0930\u0924\u094b\u0902": 2528,
  "le": 2529,
  "\u258114,": 2530,
  "\u2581Remember": 2531,
  "\u2581\u0938\u093e\u092b\u093c": 2532,
  "\u2581served": 2533,
  "\u2581families": 2534,
  "\u2581pure": 2535,
  "\u2581\u0928\u0947\u0915": 2536,
  "\u2581direction": 2537,
  "\u2581\u0926\u092f\u093e\u0935\u093e\u0928": 2538,
  "\u2581\u0928\u094d\u092f\u0942": 2539,
  "\u2581apply": 2540,
  "\u2581decision": 2541,
  "\u2581seed": 2542,
  "\u2581\u091c\u093e\u090f\u0902": 2543,
  "\u2581promises": 2544,
  "\u2581\u0905\u0938\u092b\u0932": 2545,
  "\u2581regard": 2546,
  "\u2581Jewish": 2547,
  "\u094d\u0915\u093e\u0930": 2548,
  "\u2581ransom": 2549,
  "\u2581\u092c\u0926\u0932\u0947\u0902": 2550,
  "\u2581\u092d\u0947\u091c\u0947": 2551,
  "\u2581prove": 2552,
  "\u092a": 2553,
  "\u2581U": 2554,
  "\u2581data": 2555,
  "\u2581\u092c\u0928\u094d\u0926": 2556,
  "\u2581maintain": 2557,
  "\u2581\u092c\u0939\u0941\u0924\u0947\u0930": 2558,
  "\u2581\u091c\u093c\u093f\u0928\u094d\u0926\u0917\u0940": 2559,
  "\u2581confidence": 2560,
  "\u2581\u092a\u094d\u0930\u092e\u093e\u0923": 2561,
  "\u2581\u092b\u093e\u0907\u0932": 2562,
  "\u2581remove": 2563,
  "\u2581rich": 2564,
  "\u2581\u092a\u0921\u093c\u0940": 2565,
  "\u2581Holy": 2566,
  "\u2581\u092a\u0935\u093f\u0924\u094d\u0930\u093e": 2567,
  "\u092d\u093e\u0901\u0924\u093f": 2568,
  "\u2581ready": 2569,
  "\u2581\u092f\u0942\u0928\u093e\u0928\u0940": 2570,
  "\u2581\u0938\u0941\u092c\u0939": 2571,
  "\u2581W": 2572,
  "\u2581dwell": 2573,
  "\u2581rain": 2574,
  "\u2581\u092a\u0930\u0935\u093e\u0939": 2575,
  "\u2581\u0938\u0941\u0928\u0924\u093e": 2576,
  "\u2581regular": 2577,
  "\u2581\u0907\u0924\u0928\u0947": 2578,
  "\u2581faces": 2579,
  "\u2581refuge": 2580,
  "\u2581report": 2581,
  "\u2581Line": 2582,
  "\u2581hour": 2583,
  "\u2581looking": 2584,
  "\u2581States": 2585,
  "\u2581area": 2586,
  "\u2581\u0916\u093e": 2587,
  "\u258129": 2588,
  "\u2581add": 2589,
  "\u2581\u0906\u092f\u0940": 2590,
  "\u2581de": 2591,
  "\u2581\u0906\u0916\u093f\u0930": 2592,
  "\u2581Come": 2593,
  "ion": 2594,
  "\u2581issue": 2595,
  "\u2581\u0932\u0921\u093c\u0915\u0947": 2596,
  "\u2581\u0926\u092f\u093e\u0932\u0941\u0924\u093e": 2597,
  "\u2581homes": 2598,
  "\u2581\u092d\u0930\u0940": 2599,
  "\u2581\u0930\u094b\u092e\u093f\u092f\u094b\u0902": 2600,
  "\u2581\u092a\u0930\u093f\u092f\u094b\u091c\u0928\u093e": 2601,
  "\u2581\u0932\u0940\u091c\u093f\u090f": 2602,
  "\u2581salvation": 2603,
  "\u2581darkness": 2604,
  "\u2581Asia": 2605,
  "\u0935\u0947": 2606,
  "\u2581\u0928\u0924\u0940\u091c\u093e": 2607,
  "\u2581\u0930\u0939\u0928\u0947\u0935\u093e\u0932\u0947": 2608,
  "\u2581\u091b\u094b\u091f\u093e": 2609,
  "\u2581prophets": 2610,
  "\u2581spread": 2611,
  "\u2581\u0935\u0930\u094d\u0917": 2612,
  "\u2581favor": 2613,
  "\u2581\u0925\u094b\u0921\u093c\u093e": 2614,
  "\u2581condition": 2615,
  "\u2581kings": 2616,
  "\u2581severe": 2617,
  "\u2581half": 2618,
  "\u2581daughters": 2619,
  "\u2581\u0926\u093f\u0916\u093e\u0908": 2620,
  "\u2581\u092e\u0941\u0915\u093c\u093e\u092c\u0932\u0947": 2621,
  "\u2581gathered": 2622,
  "\u2581\u092a\u0915\u0921\u093c": 2623,
  "\u0926\u0942\u0938\u0930\u0947": 2624,
  "\u2581spoken": 2625,
  "\u2581various": 2626,
  "\u2581\u092e\u094b\u092e\u093f\u0928": 2627,
  "\u2581congregations": 2628,
  "\u2581pain": 2629,
  "\u2581\u091c\u093f\u0928\u0915\u0940": 2630,
  "\u2581\u0938\u0947\u091f": 2631,
  "\u2581door": 2632,
  "\u2581ground": 2633,
  "\u2581\u0926\u093f\u0916\u093e\u092f\u0940": 2634,
  "1": 2635,
  "ro": 2636,
  "\u2581SAW": 2637,
  "\u2581lest": 2638,
  "\u2581rivers": 2639,
  "\u2581stop": 2640,
  "\u2581\u0909\u092a\u0932\u092c\u094d\u0927": 2641,
  "\u258110,": 2642,
  "\u2581met": 2643,
  "\u2581short": 2644,
  "\u2581\u0905\u0928\u0941\u092e\u0924\u093f": 2645,
  "\u2581\u0930\u0916\u093f\u090f": 2646,
  "\u2581continued": 2647,
  "\u2581determined": 2648,
  "\u2581third": 2649,
  "\u2581\u0936\u0930\u0940\u0915": 2650,
  "\u2581Unto": 2651,
  "\u2581physical": 2652,
  "\u2581\u0938\u0947\u0928\u093e": 2653,
  "And": 2654,
  "\u258120.": 2655,
  "\u2581rejoice": 2656,
  "\u2581\u0909\u091a\u093f\u0924": 2657,
  "\u2581\u092f\u0939\u093e\u0902": 2658,
  "\u2581Behold": 2659,
  "\u2581Jeremiah": 2660,
  "\u2581\u0915\u0930\u094b\u0917\u0947": 2661,
  "\u2581deliver": 2662,
  "\u2581\u0932\u093f\u0916": 2663,
  "\u2581Don": 2664,
  "\u2581protect": 2665,
  "\u0905\u091c\u093c\u093e\u092c": 2666,
  "\u25817,": 2667,
  "\u2581built": 2668,
  "\u2581Scriptural": 2669,
  "\u2581\u092c\u0928\u094d\u0926\u0917": 2670,
  "\u2581associate": 2671,
  "\u2581preach": 2672,
  "\u2581\u0938\u092e\u094d\u092c\u0928\u094d\u0927": 2673,
  "\u2581\u0908\u092e\u093e\u0928\u0926\u093e\u0930": 2674,
  "\u2581Failed": 2675,
  "\u2581Only": 2676,
  "\u2581\u0921\u093e\u0932\u0947": 2677,
  "\u2581class": 2678,
  "\u2581former": 2679,
  "\u2581percent": 2680,
  "\u2581visit": 2681,
  "\u2581\u092e\u093f\u0938\u094d\u0930": 2682,
  "\u2581\u091a\u0930\u094d\u091a": 2683,
  "\u2581filled": 2684,
  "\u2581\u0905\u0927\u093f\u0915\u093e\u0930\u0940": 2685,
  "\u2581\u0909\u092a\u0938\u094d\u0925\u093f\u0924": 2686,
  "\u2581\u0927\u0940\u0930\u0947": 2687,
  "\u2581play": 2688,
  "\u2581\u0916\u0942\u0928": 2689,
  "\u0915\u0941\u092b\u093c\u094d\u0930": 2690,
  "\u2581Genesis": 2691,
  "\u2581\u092e\u0930\u093f\u092f\u092e": 2692,
  "\u0917\u0940": 2693,
  "\u2581forward": 2694,
  "\u2581\u0914": 2695,
  "\u2581m": 2696,
  "\u2581advice": 2697,
  "\u2581afraid": 2698,
  "\u2581efforts": 2699,
  "\u2581helps": 2700,
  "\u2581saith": 2701,
  "\u2581\u091c\u093f\u0928\u0915\u094b": 2702,
  "\u2581\u091c\u0940\u0928\u0947": 2703,
  "\u093f\u0932": 2704,
  "\u2581denied": 2705,
  "\u2581lot": 2706,
  "un": 2707,
  "\u2581countries": 2708,
  "\u2581\u0938\u092e\u093e\u092a\u094d\u0924": 2709,
  "\u0926": 2710,
  "\u0938\u093e": 2711,
  "\u2581\u0925\u094b\u0921\u093c\u0947": 2712,
  "\u2581\u092b\u093f\u0930\u0914\u0928": 2713,
  "\u2581offered": 2714,
  "\u2581secret": 2715,
  "\u2581town": 2716,
  "\u2581\u092e\u0902\u0926\u093f\u0930": 2717,
  "\u2581\u091c\u093f\u0924\u0928\u0947": 2718,
  "\u2581\u092e\u093f\u0932\u0928\u0947": 2719,
  "\u2581\u091a\u0940\u091c\u093c\u0947\u0902": 2720,
  "\u2581Europe": 2721,
  "\u2581thoughts": 2722,
  "\u2581whosoever": 2723,
  "\u2581\u0914\u0932\u093e\u0926": 2724,
  "\u2581forget": 2725,
  "\u2581\u0915\u0939\u0940": 2726,
  "\u2581\u092a\u094d\u0930\u0947\u0937\u093f\u0924": 2727,
  "\u2581\u0917\u093f\u0928\u0924\u0940": 2728,
  "\u2581\u0938\u0941\u0928\u0915\u0930": 2729,
  "\u2581\u0915": 2730,
  "\u2581\u0935\u0902\u0936": 2731,
  "\u258121.": 2732,
  "\u2581\u091c\u093f\u0928\u0938\u0947": 2733,
  "\u2581\u0938\u092e\u0930\u094d\u0925\u0928": 2734,
  "ar": 2735,
  "\u092e\u0947\u0930\u0947": 2736,
  "\u2581alive": 2737,
  "\u2581pioneer": 2738,
  "\u2581\u0932\u0917\u093e\u092f\u093e": 2739,
  "\u2581\u0932\u0921\u093c\u093e\u0908": 2740,
  "\u2581\u0939\u0941\u0915\u0942\u092e\u0924": 2741,
  "\u0926\u0948\u0935": 2742,
  "\u2581birth": 2743,
  "\u2581\u092a\u0939\u093f\u0932\u0947": 2744,
  "\u2581\u0935\u093f\u0930\u0941\u0926\u094d\u0927": 2745,
  "\u2581\u0930\u093e\u0938\u094d\u0924\u093e": 2746,
  "\u2581\u0906\u0928\u093e": 2747,
  "\u2581explained": 2748,
  "\u2581million": 2749,
  "\u2581older": 2750,
  "\u2581record": 2751,
  "\u258112,": 2752,
  "\u2581Read": 2753,
  "\u2581\u0938\u0935\u093e\u0932\u094b\u0902": 2754,
  "\u2581\u0905\u0927\u0940\u0928": 2755,
  "\u2581\u0935\u0930\u0940\u092f": 2756,
  "\u2581\u0932\u0947\u0902\u0917\u0947": 2757,
  "\u2581standing": 2758,
  "\u2581\u0915\u0941\u0932": 2759,
  "\u2581\u092c\u0915\u094d\u0938": 2760,
  "\u2581\u0967\u096c": 2761,
  "\u2581Tower": 2762,
  "\u2581\u092c\u0928\u093e\u0924\u0947": 2763,
  "\u2581Keep": 2764,
  "\u2581Scripture": 2765,
  "\u2581\u0926\u0930\u092e\u093f\u092f\u093e\u0928": 2766,
  "\u2581\u0928\u093f\u092f\u0924": 2767,
  "4": 2768,
  "\u2581List": 2769,
  "\u2581Re": 2770,
  "\u2581cry": 2771,
  "\u2581\u0932\u0942\u0924": 2772,
  "\u2581\u0906\u0938": 2773,
  "\u2581\u092c\u0922\u093c\u093e\u0935\u093e": 2774,
  "\u2581\u091c\u093f\u0928\u0915\u093e": 2775,
  "Our": 2776,
  "\u2581glad": 2777,
  "\u2581run": 2778,
  "\u2581\u0935\u093f\u0935\u093e\u0939": 2779,
  "z": 2780,
  "\u258111,": 2781,
  "\u2581event": 2782,
  "\u2581proved": 2783,
  "\u2581manner": 2784,
  "\u2581believing": 2785,
  "\u2581reject": 2786,
  "\u2581\u091c\u093f\u0924\u0928\u093e": 2787,
  "\u2581\u0915\u0932": 2788,
  "\u2581\u0905\u0924\u093f\u0930\u093f\u0915\u094d\u0924": 2789,
  "\u258116,": 2790,
  "\u2581opportunity": 2791,
  "\u2581\u0935\u0940\u0921\u093f\u092f\u094b": 2792,
  "\u2581lay": 2793,
  "\u2581prison": 2794,
  "\u2581\u0906\u092f\u093e\u0924": 2795,
  "\u2581\u0907\u0902\u0924\u091c\u093c\u093e\u092e": 2796,
  "\u2581\u092e\u0941\u0915\u093c\u0930\u094d\u0930\u0930": 2797,
  "\u093f": 2798,
  "\u2581willing": 2799,
  "\u258150": 2800,
  "\u2581\u092a\u0936\u094d": 2801,
  "\u2581\u092a\u0938\u0928\u094d\u0926": 2802,
  "\u2581\u092e\u0941\u0938\u0940\u092c\u0924": 2803,
  "\u2581loyal": 2804,
  "\u2581several": 2805,
  "\u2581\u0905\u092b\u094d\u0930\u0940\u0915\u093e": 2806,
  "\u2581\u091c\u093e\u0926\u0942": 2807,
  "\u2581Folder": 2808,
  "\u2581Hence": 2809,
  "\u2581till": 2810,
  "\u2581\u092a\u091f\u094d\u091f\u0940": 2811,
  "Muhammad": 2812,
  "\u2581proper": 2813,
  "\u2581\u091c\u093e\u0924\u093f\u092f\u094b\u0902": 2814,
  "\u2581Take": 2815,
  "\u2581instance": 2816,
  "\u2581privilege": 2817,
  "\u2581\u0938\u093e\u092e\u0930\u094d\u0925\u094d\u092f": 2818,
  "\u2581fell": 2819,
  "\u2581\u0915\u093c\u0926\u092e": 2820,
  "\u2581First": 2821,
  "\u2581Instead": 2822,
  "\u2581\u0917\u093c\u094c\u0930": 2823,
  "\u2581\u0939\u0935\u093e": 2824,
  "el": 2825,
  "\u2581actually": 2826,
  "\u2581\u0926\u0942\u0902\u0917\u093e": 2827,
  "\u2581\u092a\u0941\u0930\u0942\u0937": 2828,
  "\u2581\u092e\u0930\u0947": 2829,
  "\u2581\u0930\u093e\u0938\u094d\u0924\u0947": 2830,
  "\u2581\u0930\u094c\u0936\u0928": 2831,
  "\u2581Create": 2832,
  "\u2581L": 2833,
  "\u2581\u0908": 2834,
  "\u2581\u092e\u093e\u092b": 2835,
  "\u2581fast": 2836,
  "\u2581\u0936\u094d\u0930\u0947\u092f": 2837,
  "\u2581\u0938\u094b\u091a\u093e": 2838,
  "\u2581\u0916\u093e\u0932\u0940": 2839,
  "\u2581flow": 2840,
  "\u2581hours": 2841,
  "\u2581tidings": 2842,
  "\u2581\u092f\u0942\u0901": 2843,
  "\u2581\u0915\u092e\u0940": 2844,
  "\u2581\u0967\u096d": 2845,
  "\u2581force": 2846,
  "\u2581stated": 2847,
  "\u2581!": 2848,
  "\u2581modern": 2849,
  "\u2581parts": 2850,
  "\u2581\u0926\u0947\u0930": 2851,
  "\u2581\u092c\u094b\u0932\u0947": 2852,
  "\u2581Moreover": 2853,
  "\u2581subject": 2854,
  "\u2581\u0916\u093e\u0938\u0915\u0930": 2855,
  "\u2581calendar": 2856,
  "\u2581houses": 2857,
  "\u2581patience": 2858,
  "\u2581color": 2859,
  "\u2581calls": 2860,
  "\u2581mode": 2861,
  "\u2581\u0905\u0927\u094d\u092f\u093e\u092f": 2862,
  "\u2581\u0915\u0941\u092b\u094d\u092b\u093c\u093e\u0930": 2863,
  "\u2581Forgiving": 2864,
  "\u2581straight": 2865,
  "\u2581ability": 2866,
  "\u2581recorded": 2867,
  "\u2581actions": 2868,
  "\u2581\u0935\u0930\u094d\u0923\u0928": 2869,
  "\u2581happen": 2870,
  "doers": 2871,
  "\u2581published": 2872,
  "\u2581\u0938\u0940\u0927\u093e": 2873,
  "\u2581\u0932\u093e\u0924\u0947": 2874,
  "W": 2875,
  "\u2581\u0928\u0915\u093c\u0932": 2876,
  "\u2581vital": 2877,
  "\u2581\u0938\u0943\u0937\u094d\u091f\u093f": 2878,
  "\u2581added": 2879,
  "\u2581Still": 2880,
  "\u2581church": 2881,
  "\u2581thanks": 2882,
  "\u2581\u090f\u0936\u093f\u092f\u093e": 2883,
  "\u0932\u093e": 2884,
  "\u2581Last": 2885,
  "\u2581bread": 2886,
  "\u2581size": 2887,
  "\u2581X": 2888,
  "\u2581job": 2889,
  "\u2581lands": 2890,
  "\u2581\u0930\u0939\u092e\u0924": 2891,
  "\u2581break": 2892,
  "\u2581@": 2893,
  "\u2581affect": 2894,
  "\u2581required": 2895,
  "\u2581prayed": 2896,
  "\u2581\u0938\u093e\u092e\u093e\u0928": 2897,
  "\u2581disc": 2898,
  "\u2581greatest": 2899,
  "\u2581midst": 2900,
  "\u2581\u0909\u0920\u093e\u092f\u093e": 2901,
  "\u2581\u0924\u092e\u093e\u092e": 2902,
  "\u2581heed": 2903,
  "\u2581\u091a\u093e\u0939\u0947\u0902\u0917\u0947": 2904,
  "\u2581\u0938\u093f\u0916\u093e\u092f\u093e": 2905,
  "\u2581humble": 2906,
  "\u2581\u0968\u0966": 2907,
  "\u2581acts": 2908,
  "\u2581reached": 2909,
  "\u2581respond": 2910,
  "\u2581Roman": 2911,
  "\u2581responsibility": 2912,
  "\u2581activity": 2913,
  "\u2581chapter": 2914,
  "\u2581\u0915\u0920\u094b\u0930": 2915,
  "\u2581messenger": 2916,
  "\u2581\u0921\u0930\u094b": 2917,
  "\u2581allowed": 2918,
  "\u2581\u092c\u093e\u092c\u0941\u0932": 2919,
  "\u2581\u0932\u0917\u093e\u0924\u093e\u0930": 2920,
  "\u2581imitate": 2921,
  "\u2581\u092f\u0942\u0930\u094b\u092a": 2922,
  "\u2581\u0932\u094b\u0917\u094b": 2923,
  "\u2581\u092d\u093e\u0937\u0923": 2924,
  "\u2581throughout": 2925,
  "\u2581getting": 2926,
  "\u2581\u0907\u0938\u094d\u0930\u093e\u090f\u0932\u0940": 2927,
  "\u2581\u092f\u093e\u091c\u0915": 2928,
  "\u2581violence": 2929,
  "\u2581entire": 2930,
  "\u2581\u092d\u0932\u0947": 2931,
  "\u2581\u092e\u094c\u0915\u093e": 2932,
  "\u2581\u0938\u094d\u0925\u093e\u0928\u0940\u092f": 2933,
  "\u2581integrity": 2934,
  "\u2581unless": 2935,
  "man": 2936,
  "\u0905\u0928\u0915\u093c\u0930\u0940\u092c": 2937,
  "\u2581commit": 2938,
  "\u2581laws": 2939,
  "\u2581\u0938\u094b\u0928\u0947": 2940,
  "\u2581standards": 2941,
  "\u2581placed": 2942,
  "\u2581sword": 2943,
  "\u2581\u0924\u092f": 2944,
  "\u2581building": 2945,
  "\u2581earthly": 2946,
  "\u2581\u0915\u092c\u0942\u0932": 2947,
  "\u2581\u0926\u0936\u093e": 2948,
  "\u2581\u092c\u0947\u091f\u0940": 2949,
  "\u2581\u0917\u0941\u092e\u0930\u093e\u0939": 2950,
  "\u2581\u0967\u096e": 2951,
  "\u2581earlier": 2952,
  "\u2581\u092a\u094d\u0930\u092d\u093e\u0935": 2953,
  "\u2581\u091c\u093c\u093f\u0928\u094d\u0926\u093e": 2954,
  "\u2581endure": 2955,
  "\u2581government": 2956,
  "\u2581\u0915\u0926\u093e": 2957,
  "\u2581\u091c\u094b\u0936": 2958,
  "\u2581\u092a\u0939\u0941\u0901\u091a\u0947": 2959,
  "\u2581Make": 2960,
  "\u2581week": 2961,
  "\u2581\u0924\u094b\u0921\u093c": 2962,
  "\u2581sick": 2963,
  "\u2581\u0915\u093c\u093f\u0938\u094d\u092e": 2964,
  "\u2581Good": 2965,
  "\u2581thousands": 2966,
  "\u2581\u0915\u092e\u093e\u0902\u0921": 2967,
  "\u2581\u0935\u093f\u092b\u0932": 2968,
  "In": 2969,
  "\u2581\u092e\u093f\u0932\u0947\u0917\u093e": 2970,
  "\u0935\u093e\u0932\u094b\u0902": 2971,
  "\u2581grateful": 2972,
  "\u2581freedom": 2973,
  "\u2581\u092e\u0942\u0932": 2974,
  "\u2581eye": 2975,
  "\u2581knowing": 2976,
  "\u2581precious": 2977,
  "\u2581\u092a\u0924\u094d\u0925\u0930": 2978,
  "\u2581dust": 2979,
  "\u2581\u092c\u0916\u094d\u0936\u0928": 2980,
  "\u2581Bethel": 2981,
  "\u2581\u0917\u0939\u0930\u093e": 2982,
  "\u2581\u091c\u093e\u090f\u0902\u0917\u0947": 2983,
  "\u2581\u0932\u093e\u092f\u093e": 2984,
  "\u2581\u0935\u091c\u093c\u0939": 2985,
  "\u2581security": 2986,
  "\u2581almost": 2987,
  "\u2581explains": 2988,
  "\u2581reflect": 2989,
  "\u2581\u0915\u093c\u0930\u0940\u092c": 2990,
  "\u2581\u0928\u093f\u0930\u094d\u0926\u0947\u0936\u093f\u0915\u093e": 2991,
  "\u2581\u0938\u091c\u0926\u093e": 2992,
  "\u2581\u0938\u094d\u0935\u0930\u094d\u0917\u0926\u0942\u0924": 2993,
  "\u2581\u0915\u0926\u0930": 2994,
  "\u2581\u0930\u0915\u094d\u0937\u093e": 2995,
  "\u2581\u091a\u093f\u0902\u0924\u093e": 2996,
  "\u2581\u092a\u0922\u093c\u0924\u0947": 2997,
  "\u2581entered": 2998,
  "\u2581permission": 2999,
  "\u2581animals": 3000,
  "\u2581crowd": 3001,
  "\u2581\u092a\u094d\u0930\u093e\u0930\u0902\u092d": 3002,
  "\u2581\u092a\u0922\u093c": 3003,
  "\u2581\u092a\u0942\u091c\u094d\u092f": 3004,
  "\u2581gardens": 3005,
  "\u2581\u0967\u096f": 3006,
  "\u2581produce": 3007,
  "\u2581\u0930\u0939\u0947\u0917\u0940": 3008,
  "\u0935\u093e": 3009,
  "\u2581vision": 3010,
  "\u2581\u0909\u0926\u094d\u0926\u0947\u0936\u094d": 3011,
  "\u2581\u0938\u0902\u092c\u0902\u0927": 3012,
  "\u2581sexual": 3013,
  "\u2581wine": 3014,
  "\u2581\u0928\u0947\u0915\u0940": 3015,
  "\u2581Samuel": 3016,
  "\u2581\u0907\u092c\u094d\u0930\u093e\u0928\u093f\u092f\u094b\u0902": 3017,
  "\u2581\u092a\u0941\u0928\u0930\u0941\u0924\u094d\u0925\u093e\u0928": 3018,
  "\u2581\u092d\u0940\u0924\u0930": 3019,
  "\u2581battle": 3020,
  "\u2581\u0915\u094d\u0937\u092e\u093e\u0936\u0940\u0932": 3021,
  "\u2581\u0939\u094b\u0902\u0917\u0940": 3022,
  "\u2581couple": 3023,
  "\u2581\u0932\u0917\u093e\u090f": 3024,
  "\u2581\u0938\u093f\u0926\u094d\u0927": 3025,
  "\u2581role": 3026,
  "\u2581decided": 3027,
  "\u2581mine": 3028,
  "\u2581tongue": 3029,
  "\u2581\u0915\u093c\u0941\u0930\u093e\u0928": 3030,
  "\u2581evening": 3031,
  "\u2581moon": 3032,
  "\u2581activities": 3033,
  "\u2581Credit": 3034,
  "\u2581appreciation": 3035,
  "\u2581\u0909\u0924\u094d\u092a\u0924\u094d\u0924\u093f": 3036,
  "\u2581secure": 3037,
  "\u2581\u092a\u0947\u091f": 3038,
  "\u2581seeing": 3039,
  "\u2581Search": 3040,
  "\u2581beautiful": 3041,
  "\u2581disbelieved": 3042,
  "\u2581\u0938\u094d\u0925\u093f\u0930": 3043,
  "\u258123.": 3044,
  "\u2581\u0915\u092e\u091c\u093c\u094b\u0930": 3045,
  "\u2581\u092a\u094d\u0930\u0924\u093f\u0936\u0924": 3046,
  "\u0928\u0947\u0935\u093e\u0932\u093e": 3047,
  "\u0931": 3048,
  "\u2581Before": 3049,
  "\u2581appropriate": 3050,
  "\u2581disease": 3051,
  "\u2581\u0926\u0943\u0922\u093c": 3052,
  "\u2581\u0926\u094b\u0937": 3053,
  "\u2581\u092a\u0941\u0930\u093e\u0928\u0947": 3054,
  "\u2581results": 3055,
  "\u2581hearing": 3056,
  "\u2581\u092e\u093f\u0924\u094d\u0930": 3057,
  "\u2581\u0932\u0917\u0924\u0947": 3058,
  "\u2581\u0938\u0930\u0915\u093e\u0930": 3059,
  "\u2581\u0938\u093e\u0935\u0927\u093e\u0928": 3060,
  "\u2581\u0938\u093f\u0935\u093e\u092f": 3061,
  "\u0915\u093c\u093f\u092f\u093e\u092e\u0924": 3062,
  "\u2581\u0906\u0901\u0916\u094b\u0902": 3063,
  "\u2581goes": 3064,
  "\u2581provides": 3065,
  "\u2581\u0930": 3066,
  "\u2581Knowing": 3067,
  "\u2581carried": 3068,
  "\u2581influence": 3069,
  "Jehovah": 3070,
  "\u2581\u092c\u093e\u0930\u0917\u093e\u0939": 3071,
  "\u258124:": 3072,
  "\u2581books": 3073,
  "\u2581\u0906\u0916\u093c\u093f\u0930": 3074,
  "\u2581\u092d\u0930\u093e": 3075,
  "\u2581truthful": 3076,
  "\u2581\u0905\u0902\u0924\u093f\u092e": 3077,
  "\u2581\u092a\u0941\u0915\u093e\u0930": 3078,
  "\u093e\u0901": 3079,
  "\u2581millions": 3080,
  "\u258113,": 3081,
  "\u2581forbidden": 3082,
  "\u2581trying": 3083,
  "\u2581\u092e\u093e\u092e\u0932\u094b\u0902": 3084,
  "\u2581\u0938\u0947\u0935\u0915\u093e\u0908": 3085,
  "\u2581Though": 3086,
  "\u2581branch": 3087,
  "\u2581hidden": 3088,
  "\u2581sacred": 3089,
  "\u2581worldwide": 3090,
  "\u2581\u092a\u094d\u0930\u0939\u0930\u0940\u0926\u0941\u0930\u094d\u0917": 3091,
  "\u2581\u0938\u093e\u0902\u0938\u093e\u0930\u093f\u0915": 3092,
  "\u2581fulfillment": 3093,
  "\u2581info": 3094,
  "\u2581raise": 3095,
  "\u2581\u0926\u0930\u094d\u0936\u0928": 3096,
  "\u2581baptism": 3097,
  "\u2581\u0936\u093f\u0915\u093e\u0930": 3098,
  "from": 3099,
  "\u2581beginning": 3100,
  "\u2581\u0935\u0930\u094d\u0924\u092e\u093e\u0928": 3101,
  "\u2581granted": 3102,
  "\u2581warned": 3103,
  "\u2581\u090f\u0939\u0938\u093e\u0938": 3104,
  "\u2581decisions": 3105,
  "\u2581wrath": 3106,
  "\u2581\u0905\u0924\u094d\u092f\u093e\u091a\u093e\u0930": 3107,
  "\u2581\u0926\u0947\u0916\u092d\u093e\u0932": 3108,
  "\u2581\u092e\u093e\u0928\u0935": 3109,
  "\u2581concern": 3110,
  "\u2581pleasure": 3111,
  "\u2581\u092a\u0948\u0938\u0947": 3112,
  "\u2581\u092a\u094d\u0930\u0927\u093e\u0928": 3113,
  "\u2581\u0930\u094b\u091f\u0940": 3114,
  "\u2581realize": 3115,
  "\u2581\u0905\u0927\u093f\u0915\u0924\u0930": 3116,
  "\u2581\u0938\u094d\u0924\u0941\u0924\u093f": 3117,
  "\u2581loss": 3118,
  "\u2581\u0938\u0941\u0930\u0915\u094d\u0937\u093e": 3119,
  "\u2581\u0909\u0920\u093e\u0928\u0947": 3120,
  "\u2581\u092a\u0940\u0928\u0947": 3121,
  "\u2581\u0938\u0941\u0916": 3122,
  "\u2581\u0938\u094d\u0924\u0930": 3123,
  "\u2581army": 3124,
  "\u2581recompense": 3125,
  "\u2581\u0915\u0920\u093f\u0928": 3126,
  "\u2581\u0928\u094c\u0915\u0930\u0940": 3127,
  "\u2581copy": 3128,
  "\u2581inhabitants": 3129,
  "\u2581silver": 3130,
  "\u2581\u091b\u0941\u091f\u0915\u093e\u0930\u093e": 3131,
  "\u2581\u0924\u094c\u092d\u0940": 3132,
  "\u2581\u092a\u0922\u093c\u093e": 3133,
  "\u2581devotion": 3134,
  "\u2581p": 3135,
  "\u2581\u0907\u0932\u094d\u092e": 3136,
  "\u2581\u0924\u0932\u0935\u093e\u0930": 3137,
  "\u2581reveal": 3138,
  "\u2581Time": 3139,
  "\u2581watch": 3140,
  "\u2581benefits": 3141,
  "\u2581boy": 3142,
  "\u2581\u0909\u0920\u093e\u090f": 3143,
  "\u2581\u0909\u092a\u092f\u094b\u0915\u094d\u0924\u093e": 3144,
  "\u2581\u0928\u0939\u0930\u0947\u0902": 3145,
  "\u090f\u0901": 3146,
  "\u2581office": 3147,
  "\u2581spent": 3148,
  "\u2581\u0915\u0942\u091f\u0936\u092c\u094d\u0926": 3149,
  "\u2581\u0918\u0930\u093e\u0928\u0947": 3150,
  "\u2581expect": 3151,
  "ri": 3152,
  "\u093f\u092f\u093e": 3153,
  "\u2581Had": 3154,
  "\u2581warn": 3155,
  "\u2581\u0924\u0924\u094d\u0935\u0926\u0930\u094d\u0936\u0940": 3156,
  "\u2581\u0938\u092d\u093e": 3157,
  "\u2581\u092f\u093f\u0930\u094d\u092e\u092f\u093e\u0939": 3158,
  "\u2581Nay": 3159,
  "\u2581exists": 3160,
  "\u2581plain": 3161,
  "\u2581leaders": 3162,
  "\u2581paradise": 3163,
  "\u2581Which": 3164,
  "\u2581\u0915\u093c\u093e\u092f\u092e": 3165,
  "\u2581\u0915\u093e\u091f": 3166,
  "\u2581\u0915\u0941\u0902\u091c\u0940": 3167,
  "\u2581causes": 3168,
  "\u2581Ask": 3169,
  "\u2581\u091a\u093f\u0924": 3170,
  "\u2581\u0938\u094d\u092e\u0930\u0923": 3171,
  "+": 3172,
  "\u2581daily": 3173,
  "\u2581observe": 3174,
  "K": 3175,
  "\u2581ears": 3176,
  "\u2581described": 3177,
  "\u2581girl": 3178,
  "\u2581\u0905\u0935\u0938\u0930": 3179,
  "\u2581\u092c\u0926\u0932\u093e\u0935": 3180,
  "\u2581\u092e\u093e\u0930\u093e": 3181,
  "\u2581Another": 3182,
  "\u2581conscience": 3183,
  "\u2581appreciate": 3184,
  "\u2581harmony": 3185,
  "\u2581approach": 3186,
  "\u2581exercise": 3187,
  "\u2581\u092a\u0924\u094d\u0930\u093f\u0915\u093e": 3188,
  "\u2581Spirit": 3189,
  "\u2581\u0907\u092c\u094d\u0930\u093e\u0928\u0940": 3190,
  "\u2581\u092a\u0940\u0920": 3191,
  "\u2581\u092d\u093e\u0935\u0928\u093e": 3192,
  "\u2581\u0938\u0940\u0916\u093e": 3193,
  "\u2581elder": 3194,
  "\u2581grace": 3195,
  "\u2581option": 3196,
  "\u2581wind": 3197,
  "\u2581\u0938\u092e\u091d\u0924\u093e": 3198,
  "\u2581laid": 3199,
  "\u2581\u092a\u094d\u0930\u0915\u093e\u0936\u093f\u0924": 3200,
  "\u2581foretold": 3201,
  "\u2581\u092c\u091a\u094d\u091a\u093e": 3202,
  "\u2581household": 3203,
  "\u2581\u0928\u0947\u0905\u092e\u0924": 3204,
  "\u2581\u0936\u0941\u0915\u094d\u0930": 3205,
  "\u2581attend": 3206,
  "\u2581\u092e\u093f\u0932\u0947\u0917\u0940": 3207,
  "\u2581occasion": 3208,
  "\u2581\u0908\u092e\u093e\u0928\u0935\u093e\u0932\u094b\u0902": 3209,
  "\u2581\u091a\u0941\u0928\u093e": 3210,
  "\u2581\u0915\u093e\u0930": 3211,
  "\u2581\u092e\u0941\u0932\u093e\u0915\u093e\u0924": 3212,
  "ting": 3213,
  "\u2581experienced": 3214,
  "\u2581ahead": 3215,
  "\u2581Right": 3216,
  "\u2581assigned": 3217,
  "\u2581\u0916\u093e\u0913": 3218,
  "\u2581High": 3219,
  "\u2581\u0936\u0941\u092d": 3220,
  "\u00b7": 3221,
  "\u2581learning": 3222,
  "\u2581witnesses": 3223,
  "\u2581\u0926\u0938\u094d\u0924\u093e\u0935\u0947\u091c\u093c": 3224,
  "\u2581\u0905\u0935\u0948\u0927": 3225,
  "\u2581\u0906\u0916\u093f\u0930\u0940": 3226,
  "\u2581\u0932\u093f\u0916\u0928\u0947": 3227,
  "\u2581Joshua": 3228,
  "\u2581\u092a\u0947\u0921\u093c": 3229,
  "\u092a\u0928": 3230,
  "\u2581hide": 3231,
  "\u2581\u092a\u094d\u0930\u092d\u0941\u0924\u094d\u0935\u0936\u093e\u0932\u0940": 3232,
  "\u2581\u092d\u0930\u0947": 3233,
  "\u0939\u092e\u093e\u0930\u0947": 3234,
  "\u2581Box": 3235,
  "\u258122.": 3236,
  "\u2581creatures": 3237,
  "\u2581moral": 3238,
  "\u2581dear": 3239,
  "\u2581\u091a\u0947\u0932\u0947": 3240,
  "\u2581\u0935\u0939\u0940\u0902": 3241,
  "\u2581magazine": 3242,
  "\u2581psalmist": 3243,
  "\u2581strive": 3244,
  "\u2581hurt": 3245,
  "\u2581\u0926\u093e\u0916\u093c\u093f\u0932": 3246,
  "\u2581\u092a\u0921\u093c\u0947\u0917\u093e": 3247,
  "\u2581garden": 3248,
  "\u2581natural": 3249,
  "\u2581Oh": 3250,
  "\u2581user": 3251,
  "\u2581\u091b\u094b\u0921\u093c\u093e": 3252,
  "\u2581pleased": 3253,
  "\u2581reminder": 3254,
  "\u2581teachings": 3255,
  "\u2581\u092e\u094b\u0921": 3256,
  "\u2581Aaron": 3257,
  "li": 3258,
  "\u2581\u0916\u0941\u0936\u0916\u092c\u0930\u0940": 3259,
  "\u2581\u0917\u0902\u092d\u0940\u0930": 3260,
  "\u2581\u0938\u093f\u0916\u093e\u0928\u0947": 3261,
  "\u0941": 3262,
  "\u25810": 3263,
  "\u2581reports": 3264,
  "\u2581\u0906\u0930\u093e\u092e": 3265,
  "\u2581\u092a\u093e\u0932\u0928\u0947": 3266,
  "\u2581\u0932\u0921\u093c\u0915\u0940": 3267,
  "\u2581\u0939\u094c\u0938\u0932\u093e": 3268,
  "\u2581guilty": 3269,
  "\u2581\u0907\u0932\u093e\u0915\u0947": 3270,
  "\u2581students": 3271,
  "\u2581\u0939\u091f\u093e": 3272,
  "\u092e\u0917\u0930": 3273,
  "\u2581password": 3274,
  "\u2581replied": 3275,
  ")...": 3276,
  "\u2581\u092a\u0941\u0930\u0941\u0937\u094b\u0902": 3277,
  "\u2581\u0930\u094b\u091c\u093c": 3278,
  "\u2581Look": 3279,
  "\u2581Messiah": 3280,
  "\u2581gather": 3281,
  "\u2581\u0938\u0941\u0928\u094b": 3282,
  "\u2581document": 3283,
  "\u2581\u0926\u0930\u094d\u0926\u0928\u093e\u0915": 3284,
  "\u0909\u0928": 3285,
  "\u2581success": 3286,
  "\u2581training": 3287,
  "\u2581ill": 3288,
  "\u2581\u0918\u093e\u091f\u0947": 3289,
  "\u2581York": 3290,
  "\u2581stood": 3291,
  "\u2581practice": 3292,
  "\u2581\u0909\u091a\u094d\u091a": 3293,
  "\u2581\u0928\u093f\u091c\u0940": 3294,
  "\u2581\u092d\u0947\u0921\u093c": 3295,
  "\u2581main": 3296,
  "\u2581\u0939\u093f\u0915\u092e\u0924": 3297,
  "\u2581basis": 3298,
  "\u2581fail": 3299,
  "\u2581swear": 3300,
  "\u2581reasons": 3301,
  "\u2581\u0925\u094b\u0921\u093c\u0940": 3302,
  "\u2581\u092d\u0915\u094d": 3303,
  "\u2581showing": 3304,
  "\u2581walking": 3305,
  "\u2581wronged": 3306,
  "no": 3307,
  "\u0913": 3308,
  "\u2581appear": 3309,
  "\u2581response": 3310,
  "\u2581\u092d\u0935\u093f\u0937\u094d\u092f\u0935\u0915\u094d": 3311,
  "\u2581\u0938\u0915\u0947\u0902\u0917\u0947": 3312,
  "ur": 3313,
  "\u2581\u0915\u0939\u0947\u0917\u093e": 3314,
  "\u0915\u094d\u092f\u094b\u0902\u0915\u093f": 3315,
  "\u2581J": 3316,
  "\u2581addition": 3317,
  "\u2581fill": 3318,
  "\u2581\u091c\u093e\u0928\u0928\u093e": 3319,
  "\u2581\u092f\u0941\u0917": 3320,
  "\u2581\u0938\u092e\u0947\u0924": 3321,
  "\u2581\u0938\u0941\u0927\u093e\u0930": 3322,
  "\u2581expression": 3323,
  "\u2581\u0938\u092b\u0930": 3324,
  ");": 3325,
  "\u2581strengthen": 3326,
  "\u2581\u0915\u093e\u092f\u092e": 3327,
  "\u2581\u0938\u094d\u0935\u0930\u094d\u0917\u0940\u092f": 3328,
  "\u2581Image": 3329,
  "When": 3330,
  "\u2581V": 3331,
  "\u2581answers": 3332,
  "\u2581wonder": 3333,
  "\u2581\u0915\u093e\u0928\u0942\u0928": 3334,
  "\u2581\u0928\u091c\u093c\u0930\u093f\u092f\u093e": 3335,
  "\u2581necessary": 3336,
  "\u2581groups": 3337,
  "\u2581\u0939\u0941\u0913\u0902": 3338,
  "\u2581\u0924\u0930\u0940\u0915\u094b\u0902": 3339,
  "\u2581\u0939\u092e\u092e\u0947\u0902": 3340,
  "\u2581repentance": 3341,
  "\u2581room": 3342,
  "\u2581\u092c\u093f\u0917\u093e\u0921\u093c": 3343,
  "\u2581\u0938\u094b\u091a\u093f\u090f": 3344,
  "\u0906": 3345,
  "\u2581accurate": 3346,
  "\u2581languages": 3347,
  "\u2581\u092c\u093e\u0915\u0940": 3348,
  "\u2581\u091c\u0917\u0924": 3349,
  "\u258119,": 3350,
  "\u2581although": 3351,
  "\u2581drive": 3352,
  "\u2581i": 3353,
  "\u2581mountain": 3354,
  "\u2581\u0905\u091a\u093e\u0928\u0915": 3355,
  "\u2581\u0915\u093e\u092e\u092f\u093e\u092c": 3356,
  "\u2581\u092e\u093f\u091f\u093e": 3357,
  "\u2581remained": 3358,
  "\u2581\u0935\u093f\u0928\u0937\u094d\u091f": 3359,
  "\u2581\u0926\u0941\u0936\u094d": 3360,
  "\u2581seems": 3361,
  "\u2581\u0939\u093e\u0930\u0942\u0928": 3362,
  "\u0935\u093e\u0932\u093e": 3363,
  "\u2581Al": 3364,
  "\u2581helping": 3365,
  "\u2581\u0935\u093e\u0930\u093f\u0938": 3366,
  "\u0928\u0947\u0935\u093e\u0932\u094b\u0902": 3367,
  "\u2581duty": 3368,
  "\u2581\u0907\u0928\u094d\u0939\u0947\u0902": 3369,
  "\u2581\u0932\u0947\u0917\u093e": 3370,
  "\u2581\u090f\u0939\u0938\u093e\u0928": 3371,
  "\u0930\u0940": 3372,
  "soever": 3373,
  "with": 3374,
  "\u2581\u0905\u092a\u0930\u093e\u0927": 3375,
  "\u2581\u0914\u0930\u0924": 3376,
  "\u2581persons": 3377,
  "\u2581sleep": 3378,
  "\u2581waters": 3379,
  "\u2581youths": 3380,
  "\u092e\u094b\u092e\u093f\u0928\u0940\u0928": 3381,
  "\u2581lo": 3382,
  "\u2581\u092c\u0940\u092e\u093e\u0930": 3383,
  "\u2581\u0915\u0921\u093c\u0940": 3384,
  "\u2581\u0928\u092e\u094d\u0930\u0924\u093e": 3385,
  "\u2581\u0936\u0940\u0918\u094d\u0930": 3386,
  "\u2581aside": 3387,
  "\u2581trees": 3388,
  "\u2581\u0932\u0947\u0916\u0915": 3389,
  "\u2581\u0939\u0924\u094d\u092f\u093e": 3390,
  "\u2581Move": 3391,
  "\u2581supported": 3392,
  "\u2581\u091a\u0932\u0928\u093e": 3393,
  "\u2581burden": 3394,
  "\u2581\u0905\u092d\u093f\u0932\u0947\u0916": 3395,
  "\u2581apart": 3396,
  "\u2581include": 3397,
  "\u2581\u092b\u0948\u0938\u0932\u0947": 3398,
  "\u2581\u092e\u0930\u0928\u0947": 3399,
  "\u2581\u0935\u0930\u0928": 3400,
  "\u2581parent": 3401,
  "\u2581\u0939\u0938\u094d\u0924\u093e\u0915\u094d\u0937\u0930": 3402,
  "\u2581Eve": 3403,
  "\u2581quality": 3404,
  "\u2581worked": 3405,
  "\u2581\u092a\u0932\u091f": 3406,
  "ol": 3407,
  "\u2581waiting": 3408,
  "\u2581\u092e\u093e\u092f\u0928\u0947": 3409,
  "\u2581CD": 3410,
  "\u2581Mount": 3411,
  "\u2581\u092a\u0941\u0938\u094d\u0924\u093f\u0915\u093e": 3412,
  "\u092a\u094d\u0930\u092d\u0941": 3413,
  "\u2581flock": 3414,
  "\u2581\u092a\u094d\u0930\u094b\u0917\u094d\u0930\u093e\u092e": 3415,
  "\u2581\u092e\u093f": 3416,
  "\u2581Love": 3417,
  "\u2581\u0917\u092f\u0947": 3418,
  "\u2581\u092b\u094b\u0928": 3419,
  "\u2581escape": 3420,
  "\u2581business": 3421,
  "\u2581\u0926\u094c\u0921\u093c": 3422,
  "\u2581\u0935\u093f\u0928\u093e\u0936": 3423,
  "\u2581lesson": 3424,
  "\u2581regularly": 3425,
  "\u2581images": 3426,
  "\u2581\u0920\u0939\u0930\u093e": 3427,
  "\u2581\u092c\u093f\u0928\u0924\u0940": 3428,
  "\u2581begin": 3429,
  "\u2581tribulation": 3430,
  "\u2581committed": 3431,
  "\u2581outside": 3432,
  "\u2581\u0905\u0928\u092e\u094b\u0932": 3433,
  "\u2581\u0939\u094b\u0907\u090f": 3434,
  "Comment": 3435,
  "\u2581turns": 3436,
  "\u2581\u0905\u0939\u0932": 3437,
  "\u258117,": 3438,
  "\u2581\u091a\u093e\u0939\u093e": 3439,
  "\u0940\u092f": 3440,
  "\u2581quickly": 3441,
  "\u2581\u0905\u0935\u0927\u093f": 3442,
  "\u2581\u092d\u0947\u091c\u0947\u0902": 3443,
  "\u2581completely": 3444,
  "\u2581cried": 3445,
  "\u2581contains": 3446,
  "\u2581\u0905\u0927\u093f\u0935\u0947\u0936\u0928": 3447,
  "\u2581\u0928\u093f\u0930\u093e\u0936": 3448,
  "\u2581\u092b\u091c\u093c": 3449,
  "\u2581Nevertheless": 3450,
  "\u2581individual": 3451,
  "\u2581\u0926\u093e\u0928\u093f\u092f\u094d\u092f\u0947\u0932": 3452,
  "\u2581offspring": 3453,
  "\u2581partners": 3454,
  "\u2581\u092a\u0942\u091b": 3455,
  "\u2581OF": 3456,
  "\u2581\u0926\u0930\u094d\u0926": 3457,
  "\u2581\u092a\u093e\u0901\u091a": 3458,
  "\u2581check": 3459,
  "\u2581keeping": 3460,
  "\u2581\u091c\u094d\u091e\u093e\u092a\u0928": 3461,
  "\u2581\u0926\u093e\u0935\u093e": 3462,
  "\u2581\u0908\u0938\u093e": 3463,
  "\u2581\u0938\u092e\u093e\u091c": 3464,
  "\u2581Qur": 3465,
  "\u2581looked": 3466,
  "\u2581\u0936\u0940\u0930\u094d\u0937\u0915": 3467,
  "\u258122,": 3468,
  "\u2581story": 3469,
  "\u2581\u092c\u091a\u0947": 3470,
  "\u2581behalf": 3471,
  "\u2581final": 3472,
  "\u2581\u091f\u0942\u091f": 3473,
  "\u2581Awake": 3474,
  "\u2581challenge": 3475,
  "\u2581\u091c\u093c\u093e\u0932\u093f\u092e\u094b\u0902": 3476,
  "\u2581thine": 3477,
  "\u2581throne": 3478,
  "\u2581Later": 3479,
  "\u2581Y": 3480,
  "\u2581Faith": 3481,
  "\u2581education": 3482,
  "\u2581fruits": 3483,
  "\u2581obedient": 3484,
  "\u2581\u092a\u094d\u0930\u0917\u091f": 3485,
  "\u2581miles": 3486,
  "\u2581\u090f\u0915\u0924\u093e": 3487,
  "\u092f": 3488,
  "\u2581lack": 3489,
  "\u2581progress": 3490,
  "\u2581\u0905\u0928\u094d\u0924\u0924\u0903": 3491,
  "\u2581\u0916\u0941\u0932\u0940": 3492,
  "\u2581\u25aa": 3493,
  "\u2581directory": 3494,
  "\u2581mate": 3495,
  "See": 3496,
  "\u2581Hour": 3497,
  "\u2581protection": 3498,
  "\u2581running": 3499,
  "\u2581\u0915\u092a\u0921\u093c\u0947": 3500,
  "\u2581\u092a\u0930\u0939\u0947\u091c\u093c\u0917\u093e\u0930": 3501,
  "\u2581courage": 3502,
  "\u2581develop": 3503,
  "\u2581\u092c\u0948\u0920\u093e": 3504,
  "\u2581\u0968\u096a": 3505,
  "\u2581accounts": 3506,
  "\u2581\u0935\u093e\u0923\u0940": 3507,
  "\u2581\u0906\u0938\u093e\u0928\u0940": 3508,
  "\u2581persecution": 3509,
  "\u2581\u0938\u094d\u0935\u093e\u092e\u0940": 3510,
  "\u2581choice": 3511,
  "\u2581explain": 3512,
  "\u2581\u0917\u0935\u093e\u0939\u094b\u0902": 3513,
  "\u2581Here": 3514,
  "\u2581inside": 3515,
  "\u2581loves": 3516,
  "\u2581treat": 3517,
  "\u2581\u0928\u092e\u094d\u0930": 3518,
  "\u2581\u092b\u094c\u0930\u0928": 3519,
  "like": 3520,
  "\u258124.": 3521,
  "\u258160": 3522,
  "\u2581chief": 3523,
  "\u2581possess": 3524,
  "\u2581\u0906\u0924\u094d\u092e\u093f\u0915": 3525,
  "\u2581\u0915\u093f\u0938\u094d\u092e": 3526,
  "\u2581Perhaps": 3527,
  "\u2581resurrected": 3528,
  "\u2581\u0926\u0947\u0928\u0947\u0935\u093e\u0932\u093e": 3529,
  "\u2581asking": 3530,
  "\u2581trials": 3531,
  "\u2581empty": 3532,
  "\u2581sort": 3533,
  "\u2581sought": 3534,
  "\u2581Hall": 3535,
  "\u2581\u091c\u093c\u093f\u0902\u0926\u093e": 3536,
  "\u2581establish": 3537,
  "\u2581item": 3538,
  "\u2581\u092c\u0947\u091f\u094b\u0902": 3539,
  "\u2581assignment": 3540,
  "\u2581discipline": 3541,
  "\u2581Others": 3542,
  "\u2581car": 3543,
  "\u2581\u0915\u093c\u0924\u094d\u0932": 3544,
  "\u2581\u092a\u094d\u0930\u0926\u0930\u094d\u0936\u093f\u0924": 3545,
  "\u2581\u0936\u092e\u0942\u090f\u0932": 3546,
  "\u2581Enter": 3547,
  "\u2581Work": 3548,
  "\u2581positive": 3549,
  "\u2581ID": 3550,
  "\u2581lose": 3551,
  "\u2581process": 3552,
  "\u2581\u091c\u0939\u0928\u094d\u0928\u092e": 3553,
  "\u2581\u0924\u0930\u0940\u0915\u093c\u0947": 3554,
  "\u2581sit": 3555,
  "\u2581video": 3556,
  "\u2581\u092c\u0928\u094d\u0926\u0947": 3557,
  "\u2581\u092e\u0942\u0932\u094d\u092f": 3558,
  "ive": 3559,
  "\u2581e": 3560,
  "\u2581party": 3561,
  "\u2581version": 3562,
  "\u2581\u0918\u0902\u091f\u0947": 3563,
  "\u2581Give": 3564,
  "\u2581belong": 3565,
  "\u2581\u0915\u094d\u0932\u093f\u0915": 3566,
  "\u2581\u091a\u0932\u0915\u0930": 3567,
  "\u2581\u091a\u093e\u0939\u0924\u0940": 3568,
  "\u2581\u0932\u093e\u0913": 3569,
  "\u2581belief": 3570,
  "\u2581recognize": 3571,
  "\u2581\u0909\u0924\u093e\u0930": 3572,
  "\u2581Brother": 3573,
  "\u2581Get": 3574,
  "\u2581white": 3575,
  "\u2581\u092a\u0942\u091b\u0924\u0947": 3576,
  "he": 3577,
  "\u2581\u092e": 3578,
  "\u2581master": 3579,
  "\u2581\u0905\u0928\u0941\u0938\u0930\u0923": 3580,
  "\u2581More": 3581,
  "\u2581trial": 3582,
  "\u2581\u091c\u093e\u0928\u0935\u0930\u094b\u0902": 3583,
  "\u2581\u092a\u0921\u093c\u0924\u0940": 3584,
  "All": 3585,
  "\u2581wherein": 3586,
  "\u2581\u0915\u0939\u0947": 3587,
  "\u2581\u0924\u0915\u0932\u0940\u092b\u093c": 3588,
  "\u2581becomes": 3589,
  "\u2581punish": 3590,
  "\u2581\u0905\u0926\u093e": 3591,
  "\u2581\u0926\u0947\u0916\u0928\u093e": 3592,
  "\u2581\u0935\u093f\u0928\u094d\u092f\u093e\u0938": 3593,
  "\u2581x": 3594,
  "\u2581sometimes": 3595,
  "\u2581\u0917": 3596,
  "\u2581\u092e\u0927\u094d\u092f": 3597,
  "\u2581\u0938\u0902\u0938\u094d\u0915\u0930\u0923": 3598,
  "\u2581\u0938\u092c\u0915\u0947": 3599,
  "\u2581exist": 3600,
  "\u2581\u091c\u0928\u094d\u0928\u0924": 3601,
  "quot": 3602,
  "\u2581tells": 3603,
  "\u2581\u00a9": 3604,
  "\u2581\u092c\u0928\u093e\u0928\u093e": 3605,
  "\u2581\u0939\u091f\u0915\u0930": 3606,
  "\u2581About": 3607,
  "\u2581Path": 3608,
  "\u2581Delete": 3609,
  "\u2581English": 3610,
  "\u2581becoming": 3611,
  "\u2581cattle": 3612,
  "\u2581immediately": 3613,
  "\u2581\u092c\u0922\u093c\u093e\u0928\u0947": 3614,
  "\u2581\u0907\u091c\u093e\u091c\u093c\u0924": 3615,
  "\u2581\u0928\u093e\u0924\u0947": 3616,
  "\u2581\u092c\u0930\u0938": 3617,
  "\u2581100": 3618,
  "\u2581Isaac": 3619,
  "\u2581Soon": 3620,
  "\u25aa": 3621,
  "\u2581conditions": 3622,
  "\u2581\u0906\u0927\u093e\u0930\u093f\u0924": 3623,
  "\u2581\u0928\u092b\u0930\u0924": 3624,
  "\u2581\u092a\u0902\u0915\u094d\u0924\u093f": 3625,
  "\u0932\u0940": 3626,
  "\u2581Every": 3627,
  "\u2581encouraged": 3628,
  "\u2581related": 3629,
  "\u2581\u092b\u093c\u0930\u093f\u0936\u094d\u0924\u0947": 3630,
  "\u2581convention": 3631,
  "\u2581excellent": 3632,
  "\u2581\u0909\u0924\u093e\u0930\u093e": 3633,
  "\u2581\u0932\u093e\u0928\u0947\u0935\u093e\u0932\u094b": 3634,
  "\u258134": 3635,
  "\u2581default": 3636,
  "\u2581prevent": 3637,
  "\u2581sincere": 3638,
  "Who": 3639,
  "\u2581practical": 3640,
  "\u2581\u092c\u0938\u094d\u0924\u0940": 3641,
  "\u258118,": 3642,
  "\u2581interested": 3643,
  "\u2581\u0924\u092d\u0940": 3644,
  "Let": 3645,
  "\u258170": 3646,
  "\u2581\u092a\u094d\u0930\u093f\u092f": 3647,
  "\u0905\u092c": 3648,
  "\u2581arrived": 3649,
  "\u2581\u0907\u0928\u0915\u0947": 3650,
  "\u2581Gardens": 3651,
  "\u2581warner": 3652,
  "\u2581\u0905\u0935\u0924\u0930": 3653,
  "\u2581invited": 3654,
  "\u2581repent": 3655,
  "\u2581\u0920\u0939\u0930\u093e\u090f": 3656,
  "\u2581\u0932\u0917\u093e\u0915\u0930": 3657,
  "\u2581Should": 3658,
  "\u2581nature": 3659,
  "\u2581overcome": 3660,
  "\u2581\u0915\u093f\u0924\u093e\u092c\u094b\u0902": 3661,
  "\u2581\u091c\u0940\u0924": 3662,
  "be": 3663,
  "\u2581guides": 3664,
  "=": 3665,
  "ul": 3666,
  "\u0905\u091a\u094d\u091b\u093e": 3667,
  "\u2581\u0938\u094d\u0915\u094d\u0930\u0940\u0928": 3668,
  "\u2581steps": 3669,
  "\u2581\u0905\u091c\u094d\u091e\u093e\u0924": 3670,
  "\u2581\u0924\u0930\u094d\u0915": 3671,
  "\u2581\u0926\u0942\u0927": 3672,
  "\u0928\u093f\u0936\u093e\u0928\u093f\u092f\u094b\u0902": 3673,
  "\u25811914": 3674,
  "\u2581Lot": 3675,
  "\u2581bestowed": 3676,
  "\u2581obedience": 3677,
  "\u2581perform": 3678,
  "\u2581\u0911\u0902\u0916": 3679,
  "\u2581\u091a\u0941\u0928": 3680,
  "\u2581\u091c\u0930\u0942\u0930\u0924": 3681,
  "\u0932\u0947": 3682,
  "\u2581Man": 3683,
  "\u2581slaves": 3684,
  "\u2581\u0928\u093f\u0915\u093e\u0932\u093e": 3685,
  "\u2581\u092b\u093e\u092f\u0926\u0947": 3686,
  "ity": 3687,
  "\u2581War": 3688,
  "\u2581\u0926\u093e\u0935\u093f\u0926": 3689,
  "\u2581\u0927\u0948\u0930\u094d\u092f": 3690,
  "\u2581Yeah": 3691,
  "\u2581delight": 3692,
  "\u2581\u0938\u0935\u093e\u0930": 3693,
  "\u2581active": 3694,
  "\u2581\u0938\u0940\u092e\u093e": 3695,
  "\u2581c": 3696,
  "\u2581\u0938\u092b\u0932": 3697,
  "\u2581\u092e\u0939\u0924\u094d\u0924\u094d\u0935\u092a\u0942\u0930\u094d\u0923": 3698,
  "\u2581Ephesians": 3699,
  "\u2581touch": 3700,
  "\u2581\u0907\u0938\u0930\u093e\u0908\u0932": 3701,
  "\u2581\u0968\u0967": 3702,
  "\u2581cover": 3703,
  "\u2581Catholic": 3704,
  "\u2581\u0928\u093e\u0908\u0902": 3705,
  "\u2581\u092a\u0926": 3706,
  "\u2581\u092a\u093e\u0928\u093e": 3707,
  "\u2581\u092e\u093f\u0936\u0928\u0930\u0940": 3708,
  "\u2581portion": 3709,
  "\u2581proud": 3710,
  "\u2581\u0939\u0930\u0947\u0915": 3711,
  "ch": 3712,
  "\u2581weak": 3713,
  "\u2581\u092c\u0941\u0932\u093e\u092f\u093e": 3714,
  "\u2581declared": 3715,
  "\u2581enjoyed": 3716,
  "\u2581humility": 3717,
  "\u2581original": 3718,
  "\u2581\u0909\u0924\u094d\u092a\u0928\u094d": 3719,
  "\u2581sinners": 3720,
  "\u2581\u0916\u0921\u093c\u0940": 3721,
  "\u2581\u0916\u094b": 3722,
  "\u2581\u0936\u093e\u092e": 3723,
  "\u2581\u0939\u091c\u093c\u093e\u0930": 3724,
  "de": 3725,
  "\u2581Each": 3726,
  "\u2581\u092a\u0915\u094d\u0915\u093e": 3727,
  "by": 3728,
  "\u2581front": 3729,
  "\u2581\u0915\u093e\u0930\u094d\u092f\u0915\u094d\u0930\u092e": 3730,
  "\u2581birds": 3731,
  "\u2581feeling": 3732,
  "\u2581terrible": 3733,
  "\u2581\u092a\u0939\u0941\u0902\u091a\u093e": 3734,
  "\u2581refused": 3735,
  "\u2581values": 3736,
  "\u2581youth": 3737,
  "\u2581\u0907\u0938\u0915\u094b": 3738,
  "\u2581\u091a\u0932\u0940": 3739,
  "\u2581\u0928\u0926\u0940": 3740,
  "\u2581\u0928\u093f\u092f\u0941\u0915\u094d": 3741,
  "\u2581dedicated": 3742,
  "\u2581companions": 3743,
  "\u2581\u091c\u0939\u093e\u0902": 3744,
  "\u2581\u0926\u093f\u0916\u093e\u0928\u093e": 3745,
  "\u2581\u092a\u094d\u0930\u0924\u093f\u091c\u094d\u091e\u093e": 3746,
  "\u2581\u092f\u0939\u094b\u0936\u0942": 3747,
  "\u2581sinful": 3748,
  "\u2581\u092a\u0940\u091b\u093e": 3749,
  "\u2581\u0938\u0947\u0928\u093e\u0913\u0902": 3750,
  "\u090f\u0902": 3751,
  "\u2581Other": 3752,
  "\u2581company": 3753,
  "\u2581goal": 3754,
  "\u2581pre": 3755,
  "\u2581\u0938\u092c\u0915": 3756,
  "\u2581express": 3757,
  "\u2581\u091a\u0948\u0928": 3758,
  "\u2581\u0939\u0932\u093e\u0915": 3759,
  "\u2581setting": 3760,
  "\u2581\u0926\u0941\u0916\u0926": 3761,
  "\u2581\u092e\u0930\u091c\u093c\u0940": 3762,
  "\u2581\u092e\u0941\u092e\u0915\u093f\u0928": 3763,
  "\u2581admonition": 3764,
  "\u2581burning": 3765,
  "\u2581grant": 3766,
  "\u2581\u0921\u0930\u093e\u0928\u0947": 3767,
  "\u2581heavy": 3768,
  "\u2581relatives": 3769,
  "\u2581\u0916\u094d\u0935\u093e\u0939": 3770,
  "\u2581\u091a\u0941\u0928\u093e\u0935": 3771,
  "\u2581\u092e\u0926\u0926\u0917\u093e\u0930": 3772,
  "\u2581\u0930\u093e\u0937\u094d\u091f\u094d\u0930": 3773,
  "ment": 3774,
  "\u2581Remove": 3775,
  "\u2581centuries": 3776,
  "\u2581generation": 3777,
  "\u2581inheritance": 3778,
  "\u2581\u0924\u0932\u093e\u0936": 3779,
  "\u2581removed": 3780,
  "\u2581sake": 3781,
  "\u2581avail": 3782,
  "\u2581\u0928\u093f\u092f\u092e\u093f\u0924": 3783,
  "\u2581\u0930\u0926\u094d\u0926": 3784,
  "6": 3785,
  "\u2581pressure": 3786,
  "\u2581seized": 3787,
  "\u2581interests": 3788,
  "\u2581worldly": 3789,
  "\u2581\u0906\u0936\u0940\u0937\u0947\u0902": 3790,
  "\u2581\u092b\u093c\u093f\u0930\u0914\u0928": 3791,
  "\u2581idea": 3792,
  "\u2581political": 3793,
  "\u2581\u092a\u0948\u0938\u093e": 3794,
  "\u2581stars": 3795,
  "\u2581\u0932\u094c\u091f\u093e": 3796,
  "\u2581stone": 3797,
  "\u2581\u0906\u0926\u092e\u093f\u092f\u094b\u0902": 3798,
  "\u2581\u0915\u0930\u0928\u0947\u0935\u093e\u0932\u0940": 3799,
  "\u092a\u0942\u0930\u094d\u0935\u0915": 3800,
  "\u2581Christendom": 3801,
  "\u2581\u0915\u0939\u0915\u0930": 3802,
  "\u2581\u092a\u0948\u0930\u0935\u0940": 3803,
  "\u2581\"[": 3804,
  "\u2581\u091c\u093e\u0928\u0935\u0930": 3805,
  "\u2581\u0926\u0930": 3806,
  "\u2581\u092a\u094d\u0932\u0917\u0907\u0928": 3807,
  "\u2581\u0932\u0917\u093e\u0928\u0947": 3808,
  "\u2581female": 3809,
  "one": 3810,
  "\u0924\u0942": 3811,
  "\u2581\u0932\u093e\u0916\u094b\u0902": 3812,
  "\u2581\u0938\u092e\u0938\u094d\u092f\u093e\u0913\u0902": 3813,
  "\u0905\u0924": 3814,
  "\u2581\u0915\u093e\u092b\u093f\u0930\u094b\u0902": 3815,
  "\u2581\u092c\u0928\u0915\u0930": 3816,
  "\u2581step": 3817,
  "\u2581successful": 3818,
  "\u2581\u0906\u092a\u0938\u0947": 3819,
  "\u2581\u0938\u0902\u092a\u093e\u0926\u0915": 3820,
  "\u2581missionary": 3821,
  "\u2581\u0932\u093e\u0932": 3822,
  "\u2581simple": 3823,
  "\u2581idols": 3824,
  "\u2581increased": 3825,
  "\u2581\u0917\u0939\u0930\u0940": 3826,
  "\u092e\u0941\u091d\u0947": 3827,
  "\u2581lawful": 3828,
  "\u2581\u091c\u0902\u0917\u0932": 3829,
  "They": 3830,
  "\u0935\u0940\u0902": 3831,
  "\u2581Also": 3832,
  "\u2581personality": 3833,
  "\u2581\u0907\u0902\u091a": 3834,
  "To": 3835,
  "\u2581distress": 3836,
  "\u2581\u0935\u094d\u092f\u0930\u094d\u0925": 3837,
  "\u092c\u0947": 3838,
  "\u2581affection": 3839,
  "\u2581traveling": 3840,
  "\u2581\u0926\u0947\u0916\u0947\u0902\u0917\u0947": 3841,
  "\u2581\u092a\u0930\u094d\u0935\u0924": 3842,
  "\u2581Dr": 3843,
  "\u2581Whoever": 3844,
  "\u2581generations": 3845,
  "\u2581usually": 3846,
  "\u2581won": 3847,
  "\u2581\u0938\u0940\u0916\u0928\u0947": 3848,
  "\u2581connection": 3849,
  "\u2581riches": 3850,
  "\u2581\u0938\u092e\u093e\u091a\u093e\u0930": 3851,
  "\u2581imperfect": 3852,
  "\u2581\u0905\u0930\u094d\u091c\u093c": 3853,
  "\u2581\u0906\u090f\u0901": 3854,
  "\u2581abide": 3855,
  "Why": 3856,
  "\u2581\u0926\u0947\u0917\u0947\u0902": 3857,
  "\u2581\u0936\u093e\u0938\u0928": 3858,
  "\u2581\u092c\u094b\u0932\u0928\u0947": 3859,
  "\u2581\u092d\u093e\u0935\u0928\u093e\u0913\u0902": 3860,
  "\u2581Co": 3861,
  "\u2581Help": 3862,
  "\u2581Set": 3863,
  "\u2581chose": 3864,
  "\u2581\u092a\u093e\u092a\u094b\u0902": 3865,
  "\u2581\u0939\u093e\u0928\u093f": 3866,
  "\u2581sees": 3867,
  "\u2581\u0926\u094b\u0938\u094d\u0924\u094b\u0902": 3868,
  "\u094d\u092f": 3869,
  "\u2581Elijah": 3870,
  "\u2581contrast": 3871,
  "\u2581marry": 3872,
  "\u2581occurred": 3873,
  "\u2581\u092a\u0942\u091b\u094b": 3874,
  "\u2581eight": 3875,
  "\u2581\u0907\u0902\u0924\u091c\u093c\u093e\u0930": 3876,
  "\u2581\u0915\u0930\u0947\u0917\u0940": 3877,
  "\u2581\u0939\u093f\u092b\u093e\u091c\u093c\u0924": 3878,
  "\u2581\u0928\u093f\u0930\u094d\u0926\u093f\u0937\u094d\u091f": 3879,
  "\u2581\u092a\u0939\u093e\u0921\u093c\u094b\u0902": 3880,
  "\u2581\"\"": 3881,
  "\u2581altar": 3882,
  "\u2581\u0938\u094b\u091a\u0924\u0947": 3883,
  "\u2581falsehood": 3884,
  "\u2581tribe": 3885,
  "OR": 3886,
  "\u2581property": 3887,
  "\u2581wrongdoers": 3888,
  "\u2581\u0905\u0939\u092e": 3889,
  "\u2581\u091d\u0942\u0920\u093e": 3890,
  "\u258121:": 3891,
  "\u2581encouragement": 3892,
  "\u2581journey": 3893,
  "\u2581sacrifices": 3894,
  "\u2581\u0905\u0939\u092e\u093f\u092f\u0924": 3895,
  "\u2581\u0926\u094b\u0938\u094d\u0924\u0940": 3896,
  "\u2581\u0938\u092e\u0930\u094d\u092a\u093f\u0924": 3897,
  "\u2581\u0906\u0936\u094d": 3898,
  "\u2581encourage": 3899,
  "\u2581whatsoever": 3900,
  "\u2581\u0905\u0902\u0915": 3901,
  "\u2581\u092a\u0930\u0938\u0924\u093f\u0936": 3902,
  "\u2581\u092a\u093e\u092f\u0940": 3903,
  "\u2581\u092b\u093c\u093e\u0907\u0932\u0947\u0902": 3904,
  "\u2581\u0964...": 3905,
  "\u2581\u0915\u093c\u0941\u092c\u0942\u0932": 3906,
  "\u2581\u0927\u0928\u094d\u092f": 3907,
  "\u093e\u0908": 3908,
  "\u2581\u0905\u0915\u0947\u0932\u093e": 3909,
  "\u2581\u091d\u0942\u0920\u0940": 3910,
  "\u2581\u0924\u0947": 3911,
  "\u2581\u092a\u093e\u090f\u0917\u093e": 3912,
  "\u2581\u0938\u091c\u0917": 3913,
  "\";": 3914,
  "\u2581\u0916\u093c\u0941\u0936\u0940": 3915,
  "\u2581\u091c\u0939\u093e\u091c\u093c": 3916,
  "\u2581\u0924\u092f\u0936\u0941\u0926\u093e": 3917,
  "\u092b": 3918,
  "\u2581air": 3919,
  "\u2581\u092c\u0924\u093e\u090f": 3920,
  "\u2581\u0936\u094b\u0915": 3921,
  "\u2581\u0938\u0940\u0916\u0924\u0947": 3922,
  "\u2581\u0939\u091c\u093e\u0930": 3923,
  "\u2581Judgment": 3924,
  "\u2581reported": 3925,
  "\u2581Similarly": 3926,
  "\u2581attack": 3927,
  "\u2581space": 3928,
  "\u2581\u092c\u0922\u093c\u0924\u0940": 3929,
  "\u2581\u0936\u0924\u094d\u0930\u0941": 3930,
  "\u2581oil": 3931,
  "\u2581\u0905\u0924\u093f": 3932,
  "\u2581IN": 3933,
  "\u2581wilderness": 3934,
  "\u2581\u092b\u093c\u0949\u0928\u094d\u091f": 3935,
  "\u2581\u0935\u093e\u0926\u0947": 3936,
  "ies": 3937,
  "ling": 3938,
  "\u2581calling": 3939,
  "\u2581community": 3940,
  "\u2581g": 3941,
  "\u2581\u0916\u0930\u094d\u091a": 3942,
  "\u2581\u0938\u093f\u0930\u094d\u092b\u093c": 3943,
  "\u2581writing": 3944,
  "\u2581\u0907\u0932\u093e\u091c": 3945,
  "\u0906\u0916\u093c\u093f\u0930": 3946,
  "\u2581commandments": 3947,
  "\u2581rise": 3948,
  "\u2581observed": 3949,
  "\u2581\u0908\u092e\u0947\u0932": 3950,
  "\u2581\u091a\u092f\u0928": 3951,
  "\u2581\u092d\u0947\u0921\u093c\u094b\u0902": 3952,
  "\u2581\u092e\u0928\u0928": 3953,
  "\u2581struck": 3954,
  "\u2581\u092d\u0947\u0926": 3955,
  "\u2581General": 3956,
  "\u2581meant": 3957,
  "\u2581suffered": 3958,
  "\u2581\u0906\u0930\u0902\u092d": 3959,
  "\u2581\u0936\u0915\u094d\u0924\u093f": 3960,
  "\u2581request": 3961,
  "\u2581\u092c\u093e\u0917\u093c\u094b\u0902": 3962,
  "\u2581\u092d\u0942\u092e\u093f\u0915\u093e": 3963,
  "\u092e\u0941\u0938\u0932\u092e\u093e\u0928\u094b\u0902": 3964,
  "\u2581Among": 3965,
  "\u2581gate": 3966,
  "\u2581responsible": 3967,
  "ent": 3968,
  "\u2581Has": 3969,
  "\u2581India": 3970,
  "\u2581studying": 3971,
  "\u2581\u0928\u093f\u0915\u0932\u0947": 3972,
  "\u2581\u0938\u0941\u0928\u0940": 3973,
  "\u2581\u0938\u0942\u0930\u094d\u092f": 3974,
  "\u2581\u0939\u093e\u0930": 3975,
  "ah": 3976,
  "\u2581\u0905\u0915\u0947\u0932\u0947": 3977,
  "\u2581deeply": 3978,
  "\u2581folders": 3979,
  "\u2581join": 3980,
  "!'": 3981,
  "\u0966\u0966\u0966": 3982,
  "\u2581\u0916\u093c\u0941\u0936": 3983,
  "\u2581\u0924\u094d\u092f\u093e\u0917": 3984,
  "\u2581Mighty": 3985,
  "\u2581Tell": 3986,
  "\u2581earned": 3987,
  "\u2581\u0905\u0917\u0932\u093e": 3988,
  "\u2581\u092e\u093f\u0928\u091f": 3989,
  "/%": 3990,
  "\u258116:": 3991,
  "\u2581level": 3992,
  "\u2581\u0924\u093f\u092f\u094b\u0902": 3993,
  "\u2581\u0935\u093f\u0927\u093f": 3994,
  "\u2581\u0936\u092a\u0925": 3995,
  "\u2581\u0968\u0968": 3996,
  "\u2581big": 3997,
  "\u2581\u091c\u0928\u094b\u0902": 3998,
  "\u2581\u092b\u093c\u0930\u093f\u0936\u094d\u0924\u094b\u0902": 3999,
  "\u2581\u092c\u0947\u0939\u0926": 4000,
  "\u2581gonna": 4001,
  "\u2581\u0909\u092a\u0926\u0947\u0936": 4002,
  "\u2581\u0915\u093e\u0936": 4003,
  "\u2581\u0920\u0939\u0930\u0947": 4004,
  "\u2581\u0935\u0938\u094d\u0924\u0941\u0913\u0902": 4005,
  "\u2581\u0938\u0902\u0917\u0924\u093f": 4006,
  "\u2581\u0938\u0939": 4007,
  "\u2581claim": 4008,
  "\u2581goodness": 4009,
  "\u2581\u0926\u092c\u093e\u0935": 4010,
  "\u2581\u0927\u094d\u0935\u0928\u093f": 4011,
  "\u2581abode": 4012,
  "\u2581blame": 4013,
  "\u2581load": 4014,
  "\u2581\u0920\u093e\u0928": 4015,
  "rs": 4016,
  "\u0917\u093e": 4017,
  "\u2581\u0938\u093f\u0926\u094d\u0927\u093e\u0902\u0924": 4018,
  "\u2581URL": 4019,
  "\u2581non": 4020,
  "\u2581requires": 4021,
  "\u2581\u0928\u093f\u092f\u092e\u094b\u0902": 4022,
  "\u2581\u0930\u0939\u093f\u090f": 4023,
  "\u2581Address": 4024,
  "\u2581N": 4025,
  "\u2581favour": 4026,
  "\u2581literature": 4027,
  "\u2581visited": 4028,
  "\u2581\u0905\u0915\u094d\u0937\u092e": 4029,
  "\u2581\u091a\u093f\u0928\u094d\u0939": 4030,
  "\u2581\u0928\u0940\u0924\u093f": 4031,
  "\u2581\u0932\u0921\u093c\u0915\u093e": 4032,
  "lo": 4033,
  "\u2581Gilead": 4034,
  "\u2581\u0909\u0924\u094d\u092a\u0928\u094d\u0928": 4035,
  "\u0915\u0941\u091b": 4036,
  "\u2581km": 4037,
  "\u2581\u091c\u094b\u0921\u093c": 4038,
  "\u2581proof": 4039,
  "\u2581\u0932\u093e\u0916": 4040,
  "\u2581\u0936\u093e\u0930\u0940\u0930\u093f\u0915": 4041,
  "\u2581\u0930\u093e\u091c\u093c\u0940": 4042,
  "\u2581bounty": 4043,
  "\u2581trouble": 4044,
  "\u2581\u0907\u0915\u091f\u094d\u0920\u0947": 4045,
  "\u2581\u0905\u0927\u0930\u094d\u092e": 4046,
  "\u2581\u0924\u0947\u0932": 4047,
  "\u2581\u092f\u0926\u094d\u092f\u092a\u093f": 4048,
  "\u2581Through": 4049,
  "\u0924\u0941\u092e\u094d\u0939\u093e\u0930\u0947": 4050,
  "\u0941\u092c": 4051,
  "\u2581curse": 4052,
  "\u2581dedication": 4053,
  "\u2581\u0917\u094b\u092f\u093e": 4054,
  "\u2581\u0927\u093e\u0930\u094d\u092e\u093f\u0915\u0924\u093e": 4055,
  "\u2581\u092c\u0916\u094d\u0936": 4056,
  "\u2581Believers": 4057,
  "\u2581Edit": 4058,
  "\u2581upright": 4059,
  "\u2581\u0907\u0930\u093e\u0926\u093e": 4060,
  "\u2581\u0924\u0941\u092e\u094d\u0939\u0947": 4061,
  "\u2581\u0921\u0940": 4062,
  "\u2581\u0930\u094b\u092e": 4063,
  "\u2581Display": 4064,
  "\u2581\u0938\u092e\u091d\u093e\u092f\u093e": 4065,
  "\u0915\u093c\u093e\u092c\u0942": 4066,
  "\u2581\u0915\u093c\u0941\u0930\u0906\u0928": 4067,
  "\u2581\u0926\u0947\u0928\u0947\u0935\u093e\u0932\u0947": 4068,
  "\u0915\u093c\u0941\u0930\u093e\u0928": 4069,
  "\u0917\u093c\u0930\u091c\u093c": 4070,
  "\u2581\u0935\u092b\u093e\u0926\u093e\u0930\u0940": 4071,
  "\u2581\u0938\u0902\u0917\u0940": 4072,
  "\u2581\u0938\u092e\u094d\u092e\u093f\u0932\u093f\u0924": 4073,
  "\u2581lying": 4074,
  "For": 4075,
  "\u2581Start": 4076,
  "\u2581pride": 4077,
  "\u2581\u0913": 4078,
  "\u2581\u091c\u094b\u0921\u093c\u0947": 4079,
  "\u2581\u092c\u093e": 4080,
  "\u2581\u092e\u0948\u0926\u093e\u0928": 4081,
  "\u2581sends": 4082,
  "\u2581willed": 4083,
  "\u2581low": 4084,
  "\u2581top": 4085,
  "\u2581vain": 4086,
  "\u2581victory": 4087,
  "\u2581\u0917\u0922\u093c": 4088,
  "\u2581Musa": 4089,
  "\u2581despite": 4090,
  "\u2581dwelling": 4091,
  "\u2581expressed": 4092,
  "\u2581object": 4093,
  "\u2581\u0926\u0947\u0916\u0947": 4094,
  "\u2581\u0932\u0917\u093e\u0924\u0947": 4095,
  "\u2581\u0939\u0947\u0924\u0941": 4096,
  "\u258135": 4097,
  "\u2581wall": 4098,
  "\u2581workers": 4099,
  "\u2581\u0906\u0928\u0947\u0935\u093e\u0932\u0947": 4100,
  "\u2581\u0936\u093e\u0928\u0926\u093e\u0930": 4101,
  "\u2581\u0906\u092e\u093e\u0932": 4102,
  "\u2581\u0916\u0941\u0932\u093e": 4103,
  "\u2581\u091a\u0940\u091c\u093c\u0947": 4104,
  "\u2581\u0939\u0935\u094d\u0935\u093e": 4105,
  "\u2581\u0915\u0939\u0947\u0902": 4106,
  "\u2581\u091b\u093f\u092a\u093e": 4107,
  "la": 4108,
  "less": 4109,
  "\u2581Comment": 4110,
  "\u2581recent": 4111,
  "\u2581status": 4112,
  "\u2581\u092b\u093c\u093f\u0932\u094d\u091f\u0930": 4113,
  "\u2581corruption": 4114,
  "\u091c\u093c\u0915\u093e\u0924": 4115,
  "\u092e\u093e\u0928": 4116,
  "\u2581areas": 4117,
  "\u2581neighbor": 4118,
  "\u2581quite": 4119,
  "\u2581\u0917\u0932\u0924\u0940": 4120,
  "\u2581\u091a\u093e\u0939\u0947\u0902": 4121,
  "\u2581\u0936\u093f\u0915\u094d\u0937\u093e\u0913\u0902": 4122,
  "\u2581greatly": 4123,
  "\u2581\u092c\u093e\u0915\u093c\u0940": 4124,
  "that": 4125,
  "\u2581content": 4126,
  "\u2581grieve": 4127,
  "\u2581member": 4128,
  "\u2581road": 4129,
  "\u2581whomever": 4130,
  "\u2581\u0915\u0939\u093e\u0928\u0940": 4131,
  "\u2581\u0938\u0930\u092a\u0930\u0938\u094d\u0924": 4132,
  "up": 4133,
  "\u2581cases": 4134,
  "\u2581mention": 4135,
  "\u2581\u0915\u093f\u0928\u093e\u0930\u0947": 4136,
  "\u2581\u0938\u091a\u0947\u0924": 4137,
  "\u02b9": 4138,
  "\u0909\u0938\u0915\u0947": 4139,
  "\u2581court": 4140,
  "\u2581\u0909\u0926\u093e\u0930": 4141,
  "\u2581\u092c\u093e\u0939\u092e": 4142,
  "\u2581stones": 4143,
  "\u2581weight": 4144,
  "espite": 4145,
  "\u2581appeared": 4146,
  "\u2581existence": 4147,
  "\u2581\u091c": 4148,
  "There": 4149,
  "\u2581Enable": 4150,
  "\u2581noted": 4151,
  "\u2581\u092c\u0928\u093e\u0908": 4152,
  "do": 4153,
  "\u2581hate": 4154,
  "\u2581hypocrites": 4155,
  "\u2581talking": 4156,
  "\u2581\u0915\u093e\u0932": 4157,
  "\u2581\u25cf": 4158,
  "\u2581male": 4159,
  "\u2581affairs": 4160,
  "\u2581\u092a\u0939\u0941\u0901\u091a\u0928\u0947": 4161,
  "\u258125.": 4162,
  "\u2581covered": 4163,
  "\u2581picture": 4164,
  "\u2581\u092e\u093f\u0932\u0924\u0947": 4165,
  "\u2581\u0938\u0915\u094d\u0937\u092e": 4166,
  "No": 4167,
  "\u0930\u093e": 4168,
  "\u258119:": 4169,
  "\u2581sovereignty": 4170,
  "\u2581turning": 4171,
  "\u2581\u091a\u0922\u093c": 4172,
  "\u2581\u091b\u0942": 4173,
  "\u2581\u091f\u0941\u0915\u0921\u093c\u0947": 4174,
  "\u2581\u092d\u091f\u0915": 4175,
  "\u2581\u0932\u093f\u0916\u0947": 4176,
  "\u2581\u0938\u0932\u093e\u092e": 4177,
  "\u2581faced": 4178,
  "\u2581\u0916\u0930\u093e\u0908": 4179,
  "\u2581\u091c\u093c\u092c\u093e\u0928": 4180,
  "\u2581\u0928\u0941\u0915\u0938\u093e\u0928": 4181,
  "\u2581\u092a\u0942\u0930\u094d\u0935\u093e\u0935\u0932\u094b\u0915\u0928": 4182,
  "\u2581social": 4183,
  "\u2581\u0906\u0928\u0928\u094d\u0926\u093f\u0924": 4184,
  "\u2581\u0924\u093f\u0925\u093f": 4185,
  "\u2581\u092c\u091f\u0928": 4186,
  "\u2581\u0936\u0930\u093e\u092c": 4187,
  "\u2581Close": 4188,
  "\u2581genuine": 4189,
  "\u2581\u0907": 4190,
  "\u2581\u0924\u0915\u0932\u0940\u092b": 4191,
  "\u2581\u0928\u093f\u0930\u094d\u092e\u093e\u0923": 4192,
  "\u2581\u0928\u093f\u0930\u094d\u0927\u093e\u0930\u093f\u0924": 4193,
  "\u2581archive": 4194,
  "\u2581plan": 4195,
  "\u2581consequences": 4196,
  "\u2581eventually": 4197,
  "\u2581points": 4198,
  "\u2581teacher": 4199,
  "\u2581\u091a\u0941\u0928\u0947": 4200,
  "\u2581\u091a\u094c\u0921\u093c\u093e\u0908": 4201,
  "\u2581\u091c\u093f\u0924\u0928\u0940": 4202,
  "\u2581\u0935\u0943\u0915\u094d\u0937": 4203,
  "\u2581\u0938\u0942\u091a\u093f\u0924": 4204,
  "\u2581careful": 4205,
  "\u2581\u0927\u094b\u0916\u093e": 4206,
  "\u2581\u092e\u093e\u092e\u0932\u093e": 4207,
  "\u2581mental": 4208,
  "\u2581\u091d\u0941\u0920\u0932\u093e": 4209,
  "\u2581\u092e\u093e\u0928\u0935\u091c\u093e\u0924\u093f": 4210,
  "\u2581\u0930\u093e\u091c\u093e\u0913\u0902": 4211,
  "\u2581produced": 4212,
  "\u2581unity": 4213,
  "\u2581\u091c\u0947\u0932": 4214,
  "\u2581\u0938\u093e\u0925\u093f\u092f\u094b\u0902": 4215,
  "\u2581importance": 4216,
  "\u2581broken": 4217,
  "\u2581\u0916\u0941\u0932\u0947": 4218,
  "\u2581\u092a\u0941\u0915\u093e\u0930\u093e": 4219,
  "\u2581\u092c\u0924\u093e\u0928\u0947": 4220,
  "\u2581\u0935\u0936": 4221,
  "ry": 4222,
  "\u2581Default": 4223,
  "\u2581whereas": 4224,
  "\u2581putt": 4225,
  "\u2581\u090f\u0938": 4226,
  "\u2581associated": 4227,
  "\u2581feed": 4228,
  "\u2581heads": 4229,
  "\u2581minister": 4230,
  "\u2581\u0907\u092b\u093f\u0938\u093f\u092f\u094b\u0902": 4231,
  "\u2581\u0915\u0941\u0926\u0930\u0924": 4232,
  "\u2581\u092a\u0940\u0922\u093c\u0940": 4233,
  "\u2581\u0938\u094b\u091a\u0928\u0947": 4234,
  "ne": 4235,
  "\u2581TO": 4236,
  "\u2581general": 4237,
  "\u2581host": 4238,
  "\u2581worshipers": 4239,
  "\u2581\u0906\u0928\u0902\u0926": 4240,
  "ia": 4241,
  "\u2581articles": 4242,
  "\u2581disbelief": 4243,
  "\u2581\u091c\u093e\u0902\u091a": 4244,
  "\u2581\u0928\u091c\u093c\u0926\u0940\u0915": 4245,
  "\u2581\u092c\u0939": 4246,
  "\u258120:": 4247,
  "\u2581Almighty": 4248,
  "\u2581Her": 4249,
  "\u2581abundance": 4250,
  "\u2581button": 4251,
  "\u2581closer": 4252,
  "\u2581opposition": 4253,
  "\u2581prepare": 4254,
  "\u2581\u0909\u0920": 4255,
  "\u2581\u090f\u092e": 4256,
  "Be": 4257,
  "\u0906\u0916\u093c\u0947\u0930\u0924": 4258,
  "\u0923": 4259,
  "\u2581Way": 4260,
  "\u2581injustice": 4261,
  "\u2581\u090f\u0939\u0926": 4262,
  "\u2581\u092a\u094d\u0930\u0936\u094d": 4263,
  "\u2581\u0935\u093e\u0915\u093c\u093f\u092b": 4264,
  "\u2581Project": 4265,
  "\u2581Was": 4266,
  "\u2581joined": 4267,
  "\u2581beliefs": 4268,
  "\u2581realized": 4269,
  "\u2581\u0930\u0916\u0924\u0940": 4270,
  "men": 4271,
  "\u2581race": 4272,
  "\u2581\u092f\u0941\u0935\u093e": 4273,
  "\u2581fulfill": 4274,
  "\u2581sending": 4275,
  "\u2581\u0926\u0930\u094d\u091c\u093c": 4276,
  "\u2581Contact": 4277,
  "\u2581illustration": 4278,
  "\u2581\u0911\u092b": 4279,
  "\u2581\u092a\u0925": 4280,
  "\u2581\u0935\u093e\u0938\u092f\u094b\u0917\u094d\u092f": 4281,
  "\u2581presented": 4282,
  "\u2581\u0917\u094d\u0930\u0939\u0923": 4283,
  "\u2581\u0915\u094d\u0932\u0947\u0936": 4284,
  "\u2581\u091c\u093f\u0939\u093e\u0926": 4285,
  "\u2581\u0924\u093e\u0930\u0940\u092b": 4286,
  "\u2581\u0926\u0930\u093f\u092f\u093e": 4287,
  "\u0915\u093e\u0930": 4288,
  "\u092f\u093e\u0926": 4289,
  "\u258120,": 4290,
  "\u2581remembrance": 4291,
  "\u2581style": 4292,
  "\u2581\u0926\u093e\u0916\u093f\u0932": 4293,
  "\u2581\u0935\u093f\u0930\u0942\u0926\u094d\u0927": 4294,
  "\u2581\u0938\u0902\u0915\u0947\u0924": 4295,
  "um": 4296,
  "\u2581declare": 4297,
  "\u2581hatred": 4298,
  "\u2581\u0938\u093f\u0902\u0939\u093e\u0938\u0928": 4299,
  "\u2581moving": 4300,
  "\u0942": 4301,
  "\u2581Over": 4302,
  "\u2581amount": 4303,
  "\u2581location": 4304,
  "\u2581overseer": 4305,
  "\u2581\u091a\u0928\u094d\u0926": 4306,
  "\u2581\u0938\u094d\u0935\u093e\u0917\u0924": 4307,
  "\u2581\u0905\u0928\u0928\u094d\u0924": 4308,
  "\u2581below": 4309,
  "\u2581correct": 4310,
  "\u2581returns": 4311,
  "\u2581\u0918\u091f\u0928\u093e\u0913\u0902": 4312,
  "\u0935\u093e\u0932\u0940": 4313,
  "\u2581Signs": 4314,
  "\u2581application": 4315,
  "\u2581loyalty": 4316,
  "\u2581touched": 4317,
  "\u2581\u092a\u094d\u0930\u0915\u093e\u0936\u0928\u093e": 4318,
  "\u2581\u0939\u0932": 4319,
  "\u258136": 4320,
  "\u2581\u0906\u0930": 4321,
  "\u2581\u0915\u0941\u092b\u094d\u0930": 4322,
  "\u2581\u0917\u0941\u0923\u094b\u0902": 4323,
  "\u2581\u091c\u093e\u0928\u0915\u0930": 4324,
  "\u2581\u0921\u093e\u0932\u0940": 4325,
  "\u2581\u0926\u094c\u0932\u0924": 4326,
  "\u093f\u0938": 4327,
  "\u2581Knower": 4328,
  "\u2581game": 4329,
  "\u2581studies": 4330,
  "\u2581seemed": 4331,
  "\u2581urged": 4332,
  "\u2581\u0917\u0941\u0928\u093e": 4333,
  "\u2581\u0921\u0949\u0915\u094d\u091f\u0930": 4334,
  "\u2581\u092a\u093e\u0913\u0917\u0947": 4335,
  "\u2581\u0935\u094d\u092f\u092d\u093f\u091a\u093e\u0930": 4336,
  "ism": 4337,
  "\u2581\u0905\u0930\u0947": 4338,
  "\u2581\u091c\u093c\u093f\u092e\u094d\u092e\u0947\u0926\u093e\u0930": 4339,
  "\u2581\u0926\u0932": 4340,
  "\u2581\u092a\u094d\u0930\u0924\u0940\u0915": 4341,
  "\u2581\u0917\u093f\u0930\u093e": 4342,
  "\u2581\u0939\u093f\u0938\u094d\u0938\u0947": 4343,
  "\u2581leading": 4344,
  "\u2581worthy": 4345,
  "\u2581\u0908\u092e\u093e\u0928\u0935\u093e\u0932\u0947": 4346,
  "ant": 4347,
  "\u2581minds": 4348,
  "\u2581\u0909\u0924\u0928\u093e": 4349,
  "\u2581\u0917\u092f\u0940\u0902": 4350,
  "\u2581\u0932\u093e\u0928\u0924": 4351,
  "\u2581Certainly": 4352,
  "\u2581contain": 4353,
  "\u2581\u0915\u0932\u094d\u092a\u0928\u093e": 4354,
  "\u2581\u0932\u0939\u0942": 4355,
  "\u2581merciful": 4356,
  "\u2581\u0915\u0949\u0932": 4357,
  "\u2581\u092c\u0926\u0915\u093e\u0930": 4358,
  "\u2581HTML": 4359,
  "\u2581busy": 4360,
  "\u2581relative": 4361,
  "\u2581thereafter": 4362,
  "\u2581\u092a\u093e\u092a\u093e": 4363,
  "\u2581\u092a\u094d\u0930\u092f\u093e\u0938": 4364,
  "\u2581\u0930\u0916\u0928\u0947\u0935\u093e\u0932\u094b\u0902": 4365,
  "\u2581\u0938\u0902\u092a\u093e\u0926\u0928": 4366,
  "\u2581Hey": 4367,
  "\u2581extreme": 4368,
  "\u2581separate": 4369,
  "\u2581\u092a\u0936\u0941": 4370,
  "\u2581\u092a\u094d\u0930\u0924\u0940\u0915\u094d\u0937\u093e": 4371,
  "\u2581\u0938\u0926\u0938\u094d\u092f\u094b\u0902": 4372,
  "out": 4373,
  "\u2581animal": 4374,
  "\u2581store": 4375,
  "\u2581table": 4376,
  "\u2581\u092b\u0942\u091f": 4377,
  "\u2581\u092c\u0948\u0930": 4378,
  "\u2581ark": 4379,
  "\u2581brethren": 4380,
  "\u2581\u092b\u0947\u0902\u0915": 4381,
  "\u2581\u092e\u0938\u0940\u0939\u093e": 4382,
  ":\"": 4383,
  "\u2581Two": 4384,
  "\u2581\u092a\u094d\u0930\u093e\u0930\u0942\u092a": 4385,
  "\u2581Text": 4386,
  "\u2581eternal": 4387,
  "\u2581select": 4388,
  "\u2581wide": 4389,
  "\u2581\u0917\u0948\u0930": 4390,
  "\u2581\u0932\u0917\u0924\u0940": 4391,
  "As": 4392,
  "\u2581\u0926\u093f\u0936\u093e": 4393,
  "ter": 4394,
  "\u2581box": 4395,
  "\u2581losers": 4396,
  "\u2581\u0935\u0947\u0926\u0940": 4397,
  "\u25811.": 4398,
  "\u2581details": 4399,
  "\u2581\u0907\u0928\u094d\u0938\u093e\u0928": 4400,
  "\u2581prostrate": 4401,
  "\u2581\u0905\u0902\u091c\u093e\u092e": 4402,
  "\u2581\u0905\u0924\u094d\u092f\u093e\u091a\u093e\u0930\u0940": 4403,
  "\u2581\u091c\u093e\u0928\u0947\u0935\u093e\u0932\u0947": 4404,
  "\u2581\u092c\u0941\u0932\u093e": 4405,
  "\u2581\u0939\u093e\u092f": 4406,
  "im": 4407,
  "\u2581arrangement": 4408,
  "\u2581baby": 4409,
  "\u2581publications": 4410,
  "\u2581\u091f\u0940": 4411,
  "\u2581\u0926\u093f\u092e\u093e\u0917": 4412,
  "\u2581plugin": 4413,
  "\u2581\u0905\u0928\u0941\u092a\u094d\u0930\u092f\u094b\u0917": 4414,
  "\u2581\u0915\u0930\u0942\u0901": 4415,
  "\u2581\u0935\u093f\u092a\u0924\u094d\u0924\u093f": 4416,
  "na": 4417,
  "\u2581Rome": 4418,
  "\u2581South": 4419,
  "\u2581aid": 4420,
  "\u2581sustenance": 4421,
  "\u2581\u0905\u0936\u0941\u0926\u094d\u0927": 4422,
  "\u2581\u0913\u0939": 4423,
  "\u2581\u0915\u093e\u092c\u0942": 4424,
  "\u2581cultivate": 4425,
  "\u2581danger": 4426,
  "\u2581risk": 4427,
  "\u2581\u0905\u092e\u0932": 4428,
  "\u2581\u0935\u093f\u0935\u0930\u0923": 4429,
  "\u2581\u0938\u093e\u092e\u0930\u094d\u0925": 4430,
  "\u2581hosts": 4431,
  "\u2581\u0930\u0935\u0948\u092f\u093e": 4432,
  "\u2581Never": 4433,
  "\u2581St": 4434,
  "\u2581admit": 4435,
  "\u2581eating": 4436,
  "\u2581\u092e\u0926": 4437,
  "\u2581\u0935\u093e\u0938\u0940": 4438,
  "\u2581compassion": 4439,
  "\u2581concerned": 4440,
  "\u2581teachers": 4441,
  "\u2581\u0921\u093e\u091f\u093e": 4442,
  "\u2581\u092c\u0947\u0939\u0924\u0930\u0940\u0928": 4443,
  "\u2581Home": 4444,
  "\u2581\u0938\u094d\u0924\u094d\u0930\u093f\u092f\u093e\u0901": 4445,
  "\u2581\u0938\u094d\u0935\u0930\u094d\u0917\u0926\u0942\u0924\u094b\u0902": 4446,
  "\u2581Whatever": 4447,
  "\u2581medical": 4448,
  "\u2581\u0918\u092e\u0902\u0921": 4449,
  "\u092e\u093e": 4450,
  "\u2581drawn": 4451,
  "\u2581bones": 4452,
  "\u2581fish": 4453,
  "\u2581note": 4454,
  "\u2581bound": 4455,
  "\u2581submit": 4456,
  "\u093e\u0930": 4457,
  "\u2581Next": 4458,
  "\u2581appointment": 4459,
  "\u2581direct": 4460,
  "\u2581format": 4461,
  "\u2581reply": 4462,
  "\u2581round": 4463,
  "\u2581thereby": 4464,
  "\u2581Peace": 4465,
  "\u2581Truly": 4466,
  "\u2581endurance": 4467,
  "\u2581lord": 4468,
  "\u2581reasonable": 4469,
  "\u2581developed": 4470,
  "\u2581\u0926\u0947\u0935\u0924\u093e\u0913\u0902": 4471,
  "\u2581\u092d\u091c\u0928\u0939\u093e\u0930": 4472,
  "\u2581\u0928\u093f\u0915\u0932\u093e": 4473,
  "\u2581Check": 4474,
  "\u2581School": 4475,
  "\u2581\u0914\u0930\u0924\u0947\u0902": 4476,
  "\u2581\u0930\u0939\u092e\u093e\u0928": 4477,
  "\u2581\u0935\u093e\u0926": 4478,
  "ra": 4479,
  "\u2581emotional": 4480,
  "\u2581parable": 4481,
  "\u2581\u0906\u091c\u093c\u093e\u0926\u0940": 4482,
  "\u2581\u0922\u0942\u0902\u0922\u0947\u0902": 4483,
  "\u2581\u0926\u0915\u094d\u0937\u093f\u0923": 4484,
  "\u2581\u092a\u093e\u092c\u0928\u094d\u0926": 4485,
  "\u2581\u092e\u0928\u094d\u0926\u093f\u0930": 4486,
  "\u2581\u0938\u092e\u091d\u0947": 4487,
  "\u2581\u0939": 4488,
  "\u2581finally": 4489,
  "\u2581inherit": 4490,
  "\u2581ruin": 4491,
  "\u2581safe": 4492,
  "\u2581specified": 4493,
  "\u2581\u0917\u0941\u092a\u094d\u0924": 4494,
  "\u2581\u0924\u0902\u0924\u094d\u0930": 4495,
  "\u2581\u0924\u0948\u092f\u093e\u0930\u0940": 4496,
  "\u2581\u0939\u091c\u093c\u093e\u0930\u094b\u0902": 4497,
  "9": 4498,
  "\u2581carefully": 4499,
  "\u2581merely": 4500,
  "\u2581\u0926\u0942\u0901\u0917\u093e": 4501,
  "\u2581\u092a\u0922\u093c\u0915\u0930": 4502,
  "\u2581\u0936\u093e\u0916\u093e": 4503,
  "\u2581Send": 4504,
  "\u2581society": 4505,
  "\u2581\u0924\u0902\u0917": 4506,
  "\u2581\u092a\u0941\u0915\u093e\u0930\u0924\u0947": 4507,
  "\u2581\u092a\u0942": 4508,
  "\u258137": 4509,
  "te": 4510,
  "\u2581backs": 4511,
  "\u2581opening": 4512,
  "\u2581preached": 4513,
  "\u2581\u092a\u0940": 4514,
  "\u2581\u0930\u093e\u092f": 4515,
  "\u2581\u266a": 4516,
  "\u258145": 4517,
  "\u2581evident": 4518,
  "\u2581examine": 4519,
  "\u2581\u091c\u0921\u093c": 4520,
  "\u2581\u0930\u0916\u0928\u0947\u0935\u093e\u0932\u0947": 4521,
  "Moses": 4522,
  "\u2581gifts": 4523,
  "\u2581late": 4524,
  "\u2581major": 4525,
  "\u2581\u0915\u0948\u0925\u094b\u0932\u093f\u0915": 4526,
  "\u0928\u093f\u0915\u093e\u0939": 4527,
  "\u2581commandment": 4528,
  "\u2581foot": 4529,
  "\u2581\u091a\u094b\u0930\u0940": 4530,
  "\u2581\u092c\u0947\u0925\u0947\u0932": 4531,
  "ist": 4532,
  "\u2581Find": 4533,
  "\u2581fighting": 4534,
  "\u2581private": 4535,
  "\u2581\u0906\u0920": 4536,
  "\u2581\u0928\u093e\u0908": 4537,
  "\u2581\u092a\u0928\u093e\u0939": 4538,
  "\u2581bringing": 4539,
  "\u2581\u091b\u093e": 4540,
  "\u2581Pharisees": 4541,
  "\u2581conceal": 4542,
  "\u2581helper": 4543,
  "\u2581principle": 4544,
  "\u2581\u0926\u0941\u0936\u094d\u092e\u0928": 4545,
  "\u2581\u092e\u0930\u094d\u0926": 4546,
  "\u2581Ezekiel": 4547,
  "\u2581deaf": 4548,
  "\u2581involves": 4549,
  "\u2581\u0915\u093f\u0924\u093e\u092c\u0947\u0902": 4550,
  "\u2581memo": 4551,
  "\u2581\u0905\u0938\u0932\u0940": 4552,
  "\u2581\u0935\u093f\u0936\u0947\u0937": 4553,
  "\u0949": 4554,
  "\u2581river": 4555,
  "\u2581\u092c\u091a\u093e\u0928\u0947": 4556,
  "\u2581dispute": 4557,
  "\u2581\u0907\u0938\u092a\u0930": 4558,
  "ce": 4559,
  "ver": 4560,
  "\u2581basic": 4561,
  "\u2581lessons": 4562,
  "\u2581sex": 4563,
  "\u2581\u0906\u091c\u094d\u091e\u093e\u0915\u093e\u0930\u0940": 4564,
  "\u2581\u092e\u0928\u093e": 4565,
  "\u2581\u0938\u092b\u0932\u0924\u093e": 4566,
  "\u2581\u0938\u092e\u0930\u094d\u0925\u093f\u0924": 4567,
  "\u2581\u091a\u093f\u0939\u094d\u0928\u093f\u0924": 4568,
  "\u2581authorities": 4569,
  "\u2581focus": 4570,
  "\u2581harvest": 4571,
  "\u2581police": 4572,
  "\u2581\u0930\u093e\u0939\u0947": 4573,
  "\u2581beside": 4574,
  "\u2581certificate": 4575,
  "\u2581yes": 4576,
  "\u2581\u0905\u0928": 4577,
  "\u2581\u0930\u093e\u0938\u094d\u0924": 4578,
  "\u2581sufficient": 4579,
  "\u2581\u092e\u094c\u0915\u0947": 4580,
  "\u2581Copy": 4581,
  "\u2581Nor": 4582,
  "\u2581bow": 4583,
  "\u2581wishes": 4584,
  "\u2581\u0939\u0932\u093e\u0932": 4585,
  ")!": 4586,
  "\u2581association": 4587,
  "\u2581fair": 4588,
  "\u2581included": 4589,
  "\u2581title": 4590,
  "\u2581Church": 4591,
  "\u2581burn": 4592,
  "\u2581magic": 4593,
  "\u2581relief": 4594,
  "\u2581\u0918\u093e\u0924": 4595,
  "\u2581\u0930\u094b\u092e\u0940": 4596,
  "\u2581unable": 4597,
  "\u2581\u0926\u0947\u0916\u0940": 4598,
  "\u2581acceptable": 4599,
  "\u2581crime": 4600,
  "\u2581recite": 4601,
  "\u2581shepherd": 4602,
  "\u2581\u0906\u091c\u093c\u093e\u0926": 4603,
  "\u2581\u0906\u0935\u0936\u094d": 4604,
  "\u2581\u0938\u0902\u092a\u093e\u0926\u093f\u0924": 4605,
  "\u2581\u0938\u0902\u092d\u0935": 4606,
  "\u0924\u0938\u092c\u0940\u0939": 4607,
  "\u2581bless": 4608,
  "Indeed": 4609,
  "\u2581length": 4610,
  "\u092f\u094b\u0902": 4611,
  "\u2581firmly": 4612,
  "\u2581minutes": 4613,
  "\u2581personally": 4614,
  "\u2581Invalid": 4615,
  "\u2581Philippians": 4616,
  "\u2581\u092a\u0924\u094d\u0930": 4617,
  "\u2581\u092a\u094d\u0930\u091a\u093e\u0930\u0915": 4618,
  "\u2581\u092b\u0930\u094d\u0915": 4619,
  "\u2581\u0938\u094d\u0935\u093e\u0938\u094d\u0925\u094d\u092f": 4620,
  "\u2581extent": 4621,
  "\u2581stayed": 4622,
  "\u2581\u092a\u0915\u094d\u0937": 4623,
  "\u2581\u092e\u0948\u0928\u0947": 4624,
  "\u2581\u092f\u094b\u091c\u0928\u093e": 4625,
  "\u2581Type": 4626,
  "\u2581specific": 4627,
  "\u2581\u0921\u093e\u0932\u0924\u0947": 4628,
  "\u2581\u0928\u093f\u0930\u094d\u0923\u092f": 4629,
  "\u258122:": 4630,
  "\u2581Muslims": 4631,
  "\u2581Z": 4632,
  "\u2581treatment": 4633,
  "\u2581\u0906\u0901\u0916\u0947\u0902": 4634,
  "\u2581\u092a\u0930\u0938\u094d\u092a\u0930": 4635,
  "\u2581\u092c\u0938\u094d\u0924\u093f\u092f\u094b\u0902": 4636,
  "Go": 4637,
  "\u2581terms": 4638,
  "\u2581\u0915\u093c\u093e\u0926\u093f\u0930": 4639,
  "\u2581Unknown": 4640,
  "\u2581folk": 4641,
  "\u2581husbands": 4642,
  "\u2581mere": 4643,
  "\u2581\u0915\u094d\u0930\u093f\u092f\u093e": 4644,
  "\u2581\u0926\u093f\u0916\u093e\u090f": 4645,
  "\u2581\u092c\u0941\u091c\u093c\u0941\u0930\u094d\u0917": 4646,
  "\u2581\u0938\u092e\u091d\u0928\u093e": 4647,
  "\u2581\u0938\u094d\u0924\u0930\u094b\u0902": 4648,
  "\u2581\u0916\u0947\u0924\u0940": 4649,
  "\u2581\u092a\u093e\u0924\u093e": 4650,
  "\u2581\u0938\u0902\u0915\u091f": 4651,
  "\u2581\u0939\u094b\u0928\u0947\u0935\u093e\u0932\u0940": 4652,
  "\u2581Clearly": 4653,
  "\u2581beloved": 4654,
  "\u2581kinds": 4655,
  "\u2581publishers": 4656,
  "\u2581understood": 4657,
  "\u2581\u092a\u094d\u0930\u0935\u093f\u0937\u094d\u091f": 4658,
  "\u258129.": 4659,
  "\u2581goals": 4660,
  "\u2581truths": 4661,
  "\u0935\u093f\u0936\u094d": 4662,
  "\u2581likewise": 4663,
  "\u2581music": 4664,
  "\u2581ship": 4665,
  "\u2581\u0926\u094d\u0935\u093e\u0930": 4666,
  "\u2581Color": 4667,
  "\u2581beneath": 4668,
  "\u2581delete": 4669,
  "\u2581welcome": 4670,
  "\u2581\u0915\u093f\u092f\u0947": 4671,
  "\u258128.": 4672,
  "\u2581\u092a\u0939\u0932\u0942": 4673,
  "\u2581\u092e\u0930\u0915\u0941\u0938": 4674,
  "ish": 4675,
  "\u0909\u0938\u0915\u0940": 4676,
  "\u2581\u092c\u0921\u093c\u093e\u0908": 4677,
  "\u2581\u0932\u094b\u0939\u0942": 4678,
  "\u2581\u0935\u093f\u0926\u094d\u092f\u093e\u0930\u094d\u0925\u0940": 4679,
  "\u2581effective": 4680,
  "\u2581worse": 4681,
  "\u2581Page": 4682,
  "\u2581decide": 4683,
  "\u2581telling": 4684,
  "\u2581wickedness": 4685,
  "\u2581\u091c\u093f\u0928\u094d\u0928": 4686,
  "\u2581\u092c\u0928\u094b": 4687,
  "\u2581\u092e\u093e": 4688,
  "wise": 4689,
  "\u091a": 4690,
  "\u2581Ye": 4691,
  "\u2581identify": 4692,
  "\u2581\u0921\u093f\u092b\u093c\u0949\u0932\u094d\u091f": 4693,
  "\u2581\u092c\u0948\u0920\u0915": 4694,
  "\u2581\u0935\u093f\u0915\u0938\u093f\u0924": 4695,
  "\u2581agree": 4696,
  "\u2581listening": 4697,
  "\u2581revelation": 4698,
  "\u2581\u0921\u093e\u0932\u0947\u0902": 4699,
  "\u2581\u092e\u093e\u0928\u0940": 4700,
  "\u2581\u0938\u092a\u094d\u0924\u093e\u0939": 4701,
  "\u2581\u0939\u094b\u0917\u0947": 4702,
  "\u2581conclusion": 4703,
  "so": 4704,
  "\u2581Being": 4705,
  "\u2581Once": 4706,
  "\u2581dream": 4707,
  "\u2581root": 4708,
  "\u2581warm": 4709,
  "\u2581\u0926\u093f\u0916\u093e\u0924\u0940": 4710,
  "\u2581\u092a\u094d\u0930\u0924\u093f\u0915\u094d\u0930\u093f\u092f\u093e": 4711,
  "\u2581\u092f\u093e\u091c\u0915\u094b\u0902": 4712,
  "\u2581\u0938\u0940\u0927\u0940": 4713,
  "How": 4714,
  "ate": 4715,
  "\u2581destination": 4716,
  "\u2581particular": 4717,
  "\u2581\u0905\u0926\u094d\u092f\u0924\u0928": 4718,
  "\u2581\u092e\u093e\u092b\u0940": 4719,
  "\u2581normal": 4720,
  "\u2581offerings": 4721,
  "\u2581price": 4722,
  "\u2581\u0906\u0924\u094d\u092e": 4723,
  "\u2581\u092d\u0947\u091c\u0940": 4724,
  "\u2581assembly": 4725,
  "\u2581leads": 4726,
  "ad": 4727,
  "\u2581divided": 4728,
  "\u0928\u0939\u0940\u0902": 4729,
  "\u2581Source": 4730,
  "\u2581ear": 4731,
  "\u2581easily": 4732,
  "\u2581statement": 4733,
  "their": 4734,
  "\u2581%2": 4735,
  "\u2581Noble": 4736,
  "\u2581operation": 4737,
  "\u2581\u091a\u092f": 4738,
  "\u2581\u092a\u0939\u0941\u0901\u091a\u0940": 4739,
  "\u2581\u092e\u092e\u094d\u092e\u0940": 4740,
  "\u2581\u0932\u093e\u092f\u0915": 4741,
  "ING": 4742,
  "\u2581bar": 4743,
  "\u2581exalted": 4744,
  "\u2581\u0915\u093e\u092e\u092f\u093e\u092c\u0940": 4745,
  "\u2581\u0928\u0940\u0902\u0926": 4746,
  "\u2581\u092c\u0930\u0928": 4747,
  "\u2581Apostle": 4748,
  "\u2581continues": 4749,
  "\u2581imagine": 4750,
  "\u2581violent": 4751,
  "\u2581\u0909\u092a\u0915\u0930\u0923": 4752,
  "\u2581\u092c\u0940": 4753,
  "\u2581\u0938\u094d\u0925\u093e\u092a\u093f\u0924": 4754,
  "\u2581Note": 4755,
  "\u2581friendship": 4756,
  "\u2581sharing": 4757,
  "\u2581weeks": 4758,
  "\u2581\u092d\u093e\u0937\u093e\u0913\u0902": 4759,
  "\u2581>": 4760,
  "\u2581Body": 4761,
  "\u2581access": 4762,
  "\u2581companion": 4763,
  "\u2581decree": 4764,
  "\u2581faithless": 4765,
  "\u2581jinn": 4766,
  "\u2581remote": 4767,
  "\u2581\u0938\u093e\u0939\u093f\u0924\u094d\u092f": 4768,
  "\u2581Free": 4769,
  "\u2581adds": 4770,
  "\u2581\u0928\u0937\u094d\u091f": 4771,
  "\u2581\u092a\u094d\u0930\u0936\u0902\u0938\u093e": 4772,
  "\u2581\u0930\u094b\u0915\u093e": 4773,
  "\u2581lasting": 4774,
  "\u2581successfully": 4775,
  "\u2581\u090a\u0902\u091a\u0947": 4776,
  "\u2581\u0935\u0947\u092c": 4777,
  "\u2581\u0936\u0948\u0932\u0940": 4778,
  "\u2581PAGE": 4779,
  "\u2581experiences": 4780,
  "\u2581\u0928\u093f\u0915\u093e\u0932\u0947": 4781,
  "\u2581\u091a\u093e\u0932\u091a\u0932\u0928": 4782,
  "\u2581\u092c\u093e\u0926\u0932": 4783,
  "\u2581\u0938\u094d\u092e\u093e\u0930\u0915": 4784,
  "\u2581Anjuta": 4785,
  "\u2581License": 4786,
  "\u2581practices": 4787,
  "\u2581suddenly": 4788,
  "\u2581\u092c\u0928\u093e\u0924\u093e": 4789,
  "\u092b\u0930\u093f\u0936\u094d\u0924\u0947": 4790,
  "\u2581Gospel": 4791,
  "\u2581b": 4792,
  "\u2581tears": 4793,
  "\u0939\u092e\u093e\u0930\u0940": 4794,
  "\u0939\u0940": 4795,
  "\u2581pioneers": 4796,
  "\u2581\u0905\u0938\u092e\u0930\u094d\u0925": 4797,
  "\u2581\u0916\u0924\u0930\u093e": 4798,
  "\u2581\u091f\u0948\u092c": 4799,
  "\u2581\u0921\u0930\u0924\u093e": 4800,
  "\u2581\u092c\u0922\u093c\u0924\u093e": 4801,
  "\u2581\u092c\u093e\u0930\u0940": 4802,
  "\u2581\u0930\u094b\u0917": 4803,
  "\u2581\u0938\u0902\u0917\u0940\u0924": 4804,
  "\u2581NW": 4805,
  "\u2581bearing": 4806,
  "\u2581multitude": 4807,
  "\u2581pursue": 4808,
  "\u2581throw": 4809,
  "\u2581\u0916\u092c\u0930": 4810,
  "am": 4811,
  "if": 4812,
  "\u2581convinced": 4813,
  "\u2581disciple": 4814,
  "\u2581strengthened": 4815,
  "\u2581\u0935\u093f\u0935\u0947\u0915": 4816,
  "\u2581\u0938\u0924\u094d\u0930": 4817,
  "\u2581House": 4818,
  "\u2581armies": 4819,
  "\u2581conversation": 4820,
  "\u2581grew": 4821,
  "\u2581\u0905\u0928\u094d\u0924\u093f\u092e": 4822,
  "\u2581\u092a\u0925\u092d\u094d\u0930\u0937\u094d\u091f": 4823,
  "\u25ab": 4824,
  "\u2581\u0924\u092c\u093e\u0939\u0940": 4825,
  "\u2581\u092a\u0941\u0932\u093f\u0938": 4826,
  "\u0925": 4827,
  "\u2581II": 4828,
  "\u2581purposes": 4829,
  "\u2581\u090f\u0932": 4830,
  "\u2581\u091a\u0941\u0928\u094c\u0924\u0940": 4831,
  "\u2581\u0926\u0943\u0937\u094d\u091f\u093f\u0915\u094b\u0923": 4832,
  "\u2581\u092c\u0948\u0920": 4833,
  "\u2581\u0935\u093f\u091a\u093e\u0930\u094b\u0902": 4834,
  "co": 4835,
  "\u2581\u0917\u0939\u0930\u093e\u0908": 4836,
  "\u2581\u0926\u0947\u0916\u094b\u0917\u0947": 4837,
  "\u2581\u092e\u094c\u0938\u092e": 4838,
  "\u2581ruler": 4839,
  "\u2581\u0938\u0941\u091d\u093e\u0935": 4840,
  "\u2581City": 4841,
  "\u2581includes": 4842,
  "\u2581instruction": 4843,
  "\u2581\u092c\u0940\u091c": 4844,
  "\u0935\u0947\u0902": 4845,
  "\u2581foreign": 4846,
  "\u2581\u092a\u094d\u0930\u092c\u0902\u0927\u0915": 4847,
  "\u2581\u0930\u0939\u092e": 4848,
  "id": 4849,
  "\u0909\u0928\u0915\u0940": 4850,
  "\u0926\u093e\u0926\u093e": 4851,
  "\u2581burnt": 4852,
  "\u2581iron": 4853,
  "\u2581\u092a\u0924\u094d\u0928\u093f\u092f\u094b\u0902": 4854,
  "\u2581\u092c\u0922\u093c\u0924\u0947": 4855,
  "\u2581\u092c\u0940\u0935\u093f\u092f": 4856,
  "ian": 4857,
  "\u2581buy": 4858,
  "\u2581expected": 4859,
  "\u2581leaves": 4860,
  "\u2581missionaries": 4861,
  "\u2581previous": 4862,
  "\u2581valid": 4863,
  "\u2581\u091c\u0917\u0939\u094b\u0902": 4864,
  "\u2581\u0932\u0921\u093c\u0928\u0947": 4865,
  "\u2581\u0936\u0930\u0923": 4866,
  "\u093c\u0924": 4867,
  "\u2581limited": 4868,
  "\u2581\u0905\u0924\u093f\u0930\u093f\u0915\u094d": 4869,
  "\u2581\u0905\u0932\u092c\u0924\u094d\u0924\u093e": 4870,
  "\u2581\u092f\u0915": 4871,
  "\u092a\u093e\u0915\u0940\u091c\u093c\u093e": 4872,
  "\u093f\u090f": 4873,
  "\u2581Clear": 4874,
  "\u2581count": 4875,
  "\u2581growth": 4876,
  "\u2581needy": 4877,
  "\u2581\u091a\u092e\u0924\u094d\u0915\u093e\u0930": 4878,
  "\u2581\u0926\u0941": 4879,
  "\u093f\u092f\u093e\u0902": 4880,
  "\u258131.": 4881,
  "\u2581universe": 4882,
  "\u2581\u0916\u093c": 4883,
  "\u2581\u092e\u0928\u094b\u0930\u0902\u091c\u0928": 4884,
  "\u2581attended": 4885,
  "\u2581fallen": 4886,
  "\u2581\u0916\u0947\u0924": 4887,
  "\u2581\u0926\u0947\u0939": 4888,
  "org": 4889,
  "\u2581LDAP": 4890,
  "\u2581camp": 4891,
  "\u2581~": 4892,
  "\u2581\u0909\u0920\u0947": 4893,
  "\u2581\u0928\u0948\u0924\u093f\u0915": 4894,
  "\u2581occur": 4895,
  "\u2581offline": 4896,
  "\u2581\u0935\u093f\u0936\u094d\u0930\u093e\u092e": 4897,
  "\u0915\u093f\u0938\u0940": 4898,
  "\u2581Germany": 4899,
  "\u2581formed": 4900,
  "\u2581strike": 4901,
  "\u2581\u0915\u092e\u093e\u0908": 4902,
  "\u2581\u092e\u093e\u0902\u0938": 4903,
  "ous": 4904,
  "\u2581divorce": 4905,
  "\u2581\u0927\u0942\u092a": 4906,
  "\u2581\u0932\u0948\u0902\u0917\u093f\u0915": 4907,
  "\u2581\u0935\u094d\u092f\u0938\u094d\u0924": 4908,
  "go": 4909,
  "ir": 4910,
  "\u2581bed": 4911,
  "\u2581fearing": 4912,
  "\u2581unique": 4913,
  "\u2581\u0917\u093c\u0932\u0924": 4914,
  "\u2581\u0921\u093e\u0932\u0928\u0947": 4915,
  "\u2581letters": 4916,
  "\u2581pleases": 4917,
  "\u2581speaks": 4918,
  "\u2581uses": 4919,
  "\u2581viewed": 4920,
  "\u2581\u0906\u091c\u094d\u091e\u093e\u0913\u0902": 4921,
  "\u2581\u0907\u0928\u093e\u092e": 4922,
  "\u2581\u091c\u093e\u0926\u0942\u0917\u0930": 4923,
  "8": 4924,
  "com": 4925,
  "\u258124,": 4926,
  "\u2581Young": 4927,
  "\u2581grief": 4928,
  "\u2581improve": 4929,
  "\u2581nine": 4930,
  "\u2581valuable": 4931,
  "\u2581\u092f\u0915\u0924\u093e": 4932,
  "\u2581remnant": 4933,
  "\u2581restore": 4934,
  "\u2581\u0906\u090f\u0917\u0940": 4935,
  "\u2581\u0918\u094b\u0937\u0923\u093e": 4936,
  "\u2581\u0928\u093f\u0930\u094d\u092d\u0930": 4937,
  "\u2581\u092c\u0928\u093e\u0913": 4938,
  "\u2581\u092e\u093e\u0928\u0924\u093e": 4939,
  "\u2581\u0938\u0902\u0930\u0915\u094d\u0937\u0915": 4940,
  "\u2581\u0939\u092b\u094d\u0924\u0947": 4941,
  "\u2581\u0924\u093e\u0932\u0940\u092e": 4942,
  "\u2581\u0938\u093e\u091d\u0940": 4943,
  ").\"": 4944,
  "\u2581Really": 4945,
  "\u2581hasten": 4946,
  "\u2581immorality": 4947,
  "\u2581\u092a\u093e\u0926\u0930\u0940": 4948,
  "\u2581\u092c\u0924\u093e\u0924\u0947": 4949,
  "\u2581Out": 4950,
  "\u2581\u092e\u093e\u0939\u094c\u0932": 4951,
  "\u2581\u0930\u0939\u0915\u0930": 4952,
  "\u2581Choose": 4953,
  "\u2581negative": 4954,
  "\u2581\u0926\u094b\u091c\u093c\u0916\u093c": 4955,
  "\u2581\u0935\u0948\u0927": 4956,
  "ti": 4957,
  "\u091c\u0940": 4958,
  "\u2581Christianity": 4959,
  "\u2581KDE": 4960,
  "\u2581Public": 4961,
  "\u2581\u090a\u0901\u091a\u0947": 4962,
  "\u2581\u092a\u093e\u0930\u093f\u0935\u093e\u0930\u093f\u0915": 4963,
  "\u2581worth": 4964,
  "\u2581\u0906\u0926\u0930\u094d\u0936": 4965,
  "\u2581\u092a\u0921\u093c\u094b\u0938\u0940": 4966,
  "\u2581custom": 4967,
  "\u2581discreet": 4968,
  "\u2581overseers": 4969,
  "\u2581remains": 4970,
  "\u2581\u0906\u0917\u094d\u0930\u0939": 4971,
  "\u2581\u091a\u093f\u0928\u094d\u0924\u093e": 4972,
  "\u0939\u094b": 4973,
  "\u2581rock": 4974,
  "\u2581steadfast": 4975,
  "\u2581\u0907\u0928\u0938\u0947": 4976,
  "\u2581\u0909\u0924\u093e\u0930\u0940": 4977,
  "\u2581\u0918\u0947\u0930": 4978,
  "\u2581commands": 4979,
  "\u2581knoweth": 4980,
  "\u2581unseen": 4981,
  "\u2581\u092f\u0942": 4982,
  "\u2581\u0938\u092e\u0942\u0926": 4983,
  "\u2581Import": 4984,
  "\u2581mothers": 4985,
  "\u2581poverty": 4986,
  "\u2581sat": 4987,
  "\u2581\u0905\u092b\u0938\u094b\u0938": 4988,
  "\u2581\u0926\u0942\u0924": 4989,
  "\u2581\u0935\u0940": 4990,
  "\u2581affected": 4991,
  "\u2581behavior": 4992,
  "\u2581discuss": 4993,
  "\u2581function": 4994,
  "\u2581\u0906\u0916\u093f\u0930\u0915\u093e\u0930": 4995,
  "\u2581\u092f\u093e\u0924\u094d\u0930\u093e": 4996,
  "\u2581Certificate": 4997,
  "\u2581cope": 4998,
  "\u2581flee": 4999,
  "\u2581naught": 5000,
  "\u2581recently": 5001,
  "\u2581treasure": 5002,
  "\u2581\u091a\u0947\u0939\u0930\u0947": 5003,
  "\u2581\u0924\u093e\u091c\u094d\u091c": 5004,
  "\u2581advantage": 5005,
  "\u2581clay": 5006,
  "\u2581legal": 5007,
  "\u2581north": 5008,
  "\u2581\u0932\u0902\u092c\u0947": 5009,
  "\u0905\u092a\u0928\u093e": 5010,
  "\u2581East": 5011,
  "\u2581clouds": 5012,
  "\u2581succeed": 5013,
  "\u2581\u0926\u0923\u094d\u0921": 5014,
  "\u2581\u092d\u092f\u093e\u0928\u0915": 5015,
  "\u2581\u092d\u0947\u091c\u0928\u0947": 5016,
  "\u2581\u0968\u0969": 5017,
  "\u2581perish": 5018,
  "\u2581\u0938\u0942\u0930\u091c": 5019,
  "\u2581\u0968\u096b": 5020,
  "\u2581Mercy": 5021,
  "\u2581displayed": 5022,
  "\u2581wilt": 5023,
  "\u2581completed": 5024,
  "\u2581demons": 5025,
  "\u2581glorify": 5026,
  "\u2581\u091c\u0947": 5027,
  "\u2581\u092c\u0924\u093e\u092f\u0940": 5028,
  "\u2581\u0938\u0940\u0921\u0940": 5029,
  "\u0928\u091c\u093e\u0924": 5030,
  "\u2581situations": 5031,
  "\u2581\u0918\u0943\u0923\u093e": 5032,
  "\u2581\u091c\u0940\u0935": 5033,
  "\u2581\u092a\u093f\u0924\u093e\u091c\u0940": 5034,
  "\u2581\u092c\u0926\u0932\u0928\u0947": 5035,
  "\u2581\u0938\u0902\u0932\u0917\u094d\u0928\u0915": 5036,
  "\u2581fought": 5037,
  "\u2581gates": 5038,
  "\u2581paid": 5039,
  "\u2581thankful": 5040,
  "\u2581twenty": 5041,
  "\u2581\u092b\u0930\u092e\u093e\u092f\u093e": 5042,
  "\u2581accomplish": 5043,
  "\u2581charge": 5044,
  "ance": 5045,
  "me": 5046,
  "\u0947\u0902\u0917\u0947": 5047,
  "\u2581France": 5048,
  "\u2581Levites": 5049,
  "\u2581Woe": 5050,
  "\u2581attending": 5051,
  "\u2581f": 5052,
  "\u2581probably": 5053,
  "\u2581village": 5054,
  "\u2581\u0924\u0928\u093e\u0935": 5055,
  "\u2581\u0928\u093f\u0915\u093e\u092f": 5056,
  "\u2581\u092c\u094b\u0932\u0940": 5057,
  "j": 5058,
  "se": 5059,
  "\u0935\u0939\u0940": 5060,
  "\u2581inform": 5061,
  "\u2581tribes": 5062,
  "\u2581\u0906\u0926": 5063,
  "\u2581\u0917\u093e\u0901\u0935": 5064,
  "\u2581\u091d\u0917\u0921\u093c\u0947": 5065,
  "\u0941\u0932": 5066,
  "\u2581pieces": 5067,
  "\u2581zeal": 5068,
  "\u2581\u091f\u093e\u0907\u092a": 5069,
  "\u2581\u0936\u093e\u0938\u0940": 5070,
  "\u2581pane": 5071,
  "\u2581testimony": 5072,
  "\u2581\u0909\u0932\u091f": 5073,
  "\u2581\u0928\u0924\u0940\u091c\u0947": 5074,
  "\u2581bodies": 5075,
  "\u2581\u0928\u093f\u0915\u0932\u0928\u0947": 5076,
  "\u2581\u092e\u0939\u093e": 5077,
  "\u2581Himself": 5078,
  "\u2581joyful": 5079,
  "\u2581particularly": 5080,
  "\u2581\u0921\u0949": 5081,
  "\u2581issues": 5082,
  "\u2581troubled": 5083,
  "\u2581\u0914\u091c\u093c\u093e\u0930": 5084,
  "\u2581abundant": 5085,
  "\u2581editor": 5086,
  "\u2581leaving": 5087,
  "\u2581quit": 5088,
  "\u2581\u0905\u0915\u094d\u0938\u0930": 5089,
  "\u2581\u0938\u0939\u093e\u0930\u093e": 5090,
  "\u093f\u0928": 5091,
  "\u2581Sea": 5092,
  "\u2581praying": 5093,
  "\u2581rightly": 5094,
  "\u2581waste": 5095,
  "\u2581\u092b\u093e\u091f\u0915": 5096,
  "\u2581URI": 5097,
  "\u2581\u0906\u0926\u0924": 5098,
  "\u2581\u0936\u0947\u0937": 5099,
  "\u2581restored": 5100,
  "\u2581\u092c\u093e\u0930\u0939": 5101,
  "\u2581\u0938\u093e\u092e\u0917\u094d\u0930\u0940": 5102,
  "\u2581..": 5103,
  "\u2581higher": 5104,
  "\u2581per": 5105,
  "\u2581reality": 5106,
  "\u2581Options": 5107,
  "\u2581performed": 5108,
  "\u2581recited": 5109,
  "\u2581slain": 5110,
  "\u2581translated": 5111,
  "\u2581\u0926\u093f\u0932\u093e\u0938\u093e": 5112,
  "\u2581\u0926\u0940\u0902": 5113,
  "knowing": 5114,
  "\u092e\u0924": 5115,
  "\u2581assist": 5116,
  "\u2581consideration": 5117,
  "\u2581double": 5118,
  "\u2581global": 5119,
  "\u2581\u0915\u093e\u0930\u094d\u092f\u094b\u0902": 5120,
  "\u2581\u0916\u093c\u094c\u092b": 5121,
  "\u2581\u0924\u0947\u091c\u093c": 5122,
  "\u0905\u0902\u0917\u094d\u0930\u0947\u091c\u093c\u0940": 5123,
  "\u092a\u094d\u0930\u0924\u093f\u0926\u093e\u0928": 5124,
  "\u2581POP": 5125,
  "\u2581reign": 5126,
  "\u2581travel": 5127,
  "\u0905\u0917\u0930": 5128,
  "\u2581Fear": 5129,
  "\u2581valley": 5130,
  "\u2581\u0906\u0928\u0947\u0935\u093e\u0932\u0940": 5131,
  "\u2581\u0917\u0924\u093f": 5132,
  "\u2581\u0926\u0947\u0917\u0940": 5133,
  "\u2581\u0938\u0902\u0926\u0947\u0939": 5134,
  "\u2581receiving": 5135,
  "\u2581verse": 5136,
  "\u2581\u092a\u094d\u0930\u092d\u093e\u0935\u093f\u0924": 5137,
  "\u2581enjoyment": 5138,
  "\u2581\u0905\u0927\u093f\u0915\u0924\u092e": 5139,
  "\u2581\u0915\u0930\u0941\u0923\u093e": 5140,
  "\u2581\u0926\u094d\u0935\u0940\u092a": 5141,
  "\u2581\u092a\u0932": 5142,
  "\u2581\u0935\u093f\u0926\u094d\u092f\u093e\u0930\u094d\u0925\u093f\u092f\u094b\u0902": 5143,
  "\u0940\u0926\u093e": 5144,
  "\u2581code": 5145,
  "\u2581\u0905\u092a\u0930\u093e\u0927\u0940": 5146,
  "\u2581\u090f\u0928": 5147,
  "\u2581\u0938\u093f\u0926\u094d\u0927\u093e\u0902\u0924\u094b\u0902": 5148,
  "\u2581\u0938\u094d\u0935\u0924\u0903": 5149,
  "\u0901": 5150,
  "\u2581DVD": 5151,
  "\u2581dangerous": 5152,
  "\u2581east": 5153,
  "\u2581notes": 5154,
  "\u2581\u0915\u093f\u0932\u094b\u092e\u0940\u091f\u0930": 5155,
  "\u2581encouraging": 5156,
  "\u2581follows": 5157,
  "\u2581growing": 5158,
  "\u2581liars": 5159,
  "\u2581unclean": 5160,
  "\u2581walked": 5161,
  "\u2581\u0928\u094c\u091c\u0935\u093e\u0928": 5162,
  "\u2581\u092e\u093e\u0927\u094d\u092f\u092e": 5163,
  "\u2581\u0939\u094b\u0928\u0947\u0935\u093e\u0932\u0947": 5164,
  "\u2581drinking": 5165,
  "\u2581Memorial": 5166,
  "\u2581None": 5167,
  "\u2581temptation": 5168,
  "\u2581\u0922\u0947\u0930": 5169,
  "\u2581\u0924\u0941\u091a\u094d\u091b": 5170,
  "\u2581\u0926\u0942\u0901": 5171,
  "\u2581\u0926\u0947\u0935\u0924\u093e": 5172,
  "\u2581\u092e\u094b\u0932": 5173,
  "\u2581\u0932\u093e\u090f\u0901": 5174,
  "\u2581\u0939\u094b\u0917\u0947\u0902": 5175,
  "\u2581forces": 5176,
  "\u2581options": 5177,
  "di": 5178,
  "\u2581Its": 5179,
  "\u2581hair": 5180,
  "\u2581visible": 5181,
  "\u2581wild": 5182,
  "\u2581\u0916": 5183,
  "\u2581\u091c\u0930\u094d\u092e\u0928\u0940": 5184,
  "ful": 5185,
  "\u258190": 5186,
  "\u2581associates": 5187,
  "\u2581background": 5188,
  "\u2581comments": 5189,
  "\u2581limits": 5190,
  "\u2581powers": 5191,
  "\u2581\u091c\u094b\u0921\u093c\u093e": 5192,
  "\u0915\u0941\u092c\u0942\u0932": 5193,
  "\u2581moment": 5194,
  "\u2581recall": 5195,
  "\u2581\u090a\u0901\u091a\u0940": 5196,
  "\u2581\u0930\u094b\u0915\u0924\u0947": 5197,
  "\u2581deleted": 5198,
  "\u2581handle": 5199,
  "\u2581insight": 5200,
  "\u2581referred": 5201,
  "\u2581render": 5202,
  "\u2581\u0905\u0917\u0930\u091a\u0947": 5203,
  "\u2581\u092a\u094d\u0930\u0925\u092e": 5204,
  "\u2581\u0939\u0925\u093f\u092f\u093e\u0930": 5205,
  "\u2581End": 5206,
  "\u2581Inc": 5207,
  "\u2581\u092a\u094d\u0930\u0915\u094d\u0930\u093f\u092f\u093e": 5208,
  "\u2581\u092c\u0947\u0939\u093f\u0936\u094d\u0924": 5209,
  "\u2581\u0939\u093f\u0902\u0938\u093e": 5210,
  "\u2581Okay": 5211,
  "\u2581contrary": 5212,
  "\u2581obtain": 5213,
  "\u2581student": 5214,
  "\u2581\u091a\u0922\u093c\u093e\u0908": 5215,
  "\u2581\u0930\u093e\u0939\u0924": 5216,
  "\u2581\u0938\u092e\u0930\u094d\u092a\u0923": 5217,
  "\u092c\u093e": 5218,
  "\u0930\u094b": 5219,
  "\u2581deed": 5220,
  "\u2581doth": 5221,
  "\u2581worshippers": 5222,
  "\u2581\u092a\u0921\u093c\u0924\u0947": 5223,
  "\u2581\u0939\u0901\u0938\u0940": 5224,
  "\u0939\u093e\u0901": 5225,
  "\u2581Without": 5226,
  "\u2581ease": 5227,
  "\u2581meat": 5228,
  "\u2581\u0917\u0932\u0924\u093f\u092f\u094b\u0902": 5229,
  "\u2581\u0921\u093e\u0909\u0928\u0932\u094b\u0921": 5230,
  "\u2581directed": 5231,
  "\u2581invitation": 5232,
  "\u2581meal": 5233,
  "\u2581\u0938\u092e\u091d\u0915\u0930": 5234,
  "\u2581Australia": 5235,
  "\u2581Ecclesiastes": 5236,
  "\u2581aught": 5237,
  "\u258121,": 5238,
  "\u2581confident": 5239,
  "\u2581temporary": 5240,
  "\u2581\u0921\u093e\u0932\u0947\u0917\u093e": 5241,
  "\u2581\u092a\u094d\u0930\u0947\u0930\u0923\u093e": 5242,
  "our": 5243,
  "\u2581approval": 5244,
  "\u2581energy": 5245,
  "\u2581prospect": 5246,
  "\u2581\u0905\u0917\u0941\u0935\u093e\u0908": 5247,
  "\u0935\u0940": 5248,
  "weather": 5249,
  "\u2581La": 5250,
  "\u2581]": 5251,
  "\u2581elderly": 5252,
  "\u2581train": 5253,
  "\u2581\u0926\u094b\u0937\u0940": 5254,
  "\u2581Colossians": 5255,
  "\u2581doctor": 5256,
  "\u2581\u0928\u094c": 5257,
  "\u2581Govern": 5258,
  "\u2581email": 5259,
  "\u2581recognized": 5260,
  "\u2581sir": 5261,
  "\u2581\u0905\u0928\u093f\u0935\u093e\u0930\u094d\u092f": 5262,
  "\u2581\u0915\u0930\u092e": 5263,
  "\u2581\u091a\u094b\u091f": 5264,
  "\u258138": 5265,
  "\u2581Japan": 5266,
  "\u2581across": 5267,
  "\u2581appears": 5268,
  "\u2581description": 5269,
  "\u2581respite": 5270,
  "\u2581\u092c\u0926\u094c\u0932\u0924": 5271,
  "\u2581\u092c\u0928\u0928\u093e": 5272,
  "\u2581\u0938\u0941\u0928\u093e\u0928\u0947": 5273,
  "\u2581\u0939\u094b\u0928\u0940": 5274,
  "\u0947\u0917\u093e": 5275,
  "\u2581\u0938\u094d\u0935\u092d\u093e\u0935": 5276,
  "mo": 5277,
  "per": 5278,
  "\u2581pattern": 5279,
  "\u2581\u0915\u0939\u093e\u0902": 5280,
  "\u2581\u091b\u0903": 5281,
  "\u2581Whom": 5282,
  "\u2581fears": 5283,
  "\u2581\u0905\u0927\u093f\u0915\u093e\u0902\u0936": 5284,
  "\u2581\u091c\u093e\u0928\u0940": 5285,
  "\u2581\u092a\u0930\u093f\u0936\u094d\u0930\u092e": 5286,
  "\u2581\u092c\u091a\u0928\u0947": 5287,
  "\u0909\u0928\u0915\u0947": 5288,
  "\u2581black": 5289,
  "\u2581challenges": 5290,
  "\u2581\u0915\u0928\u0947\u0915\u094d\u0936\u0928": 5291,
  "\u2581\u0915\u093c\u0930\u093e\u0930": 5292,
  "\u2581\u092a\u093e\u092a\u0940": 5293,
  "\u2581\u092c\u094b\u0932\u0924\u0947": 5294,
  "\u2581\u0938\u0924\u094d\u092f\u093e\u092a\u0928": 5295,
  "\u2581\u0938\u092e\u0941\u0926\u093e\u092f": 5296,
  "\u2581Thank": 5297,
  "\u2581patiently": 5298,
  "\u2581\u0924\u093f\u0917\u0924": 5299,
  "ph": 5300,
  "\u2581descendants": 5301,
  "\u2581dry": 5302,
  "\u2581forgiving": 5303,
  "\u2581limit": 5304,
  "\u2581military": 5305,
  "\u2581possessions": 5306,
  "\u2581\u0905\u0927\u093f\u0915\u093e\u0930\u093f\u092f\u094b\u0902": 5307,
  "\u2581\u092a\u093e\u0938\u0935\u0930\u094d\u0921": 5308,
  "\u2581\u0932\u093f\u0902\u0915": 5309,
  "ton": 5310,
  "\u0921\u0940": 5311,
  "\u2581environment": 5312,
  "\u2581grain": 5313,
  "\u2581territory": 5314,
  "\u2581\u092b\u093c": 5315,
  "\u2581\u0938\u0915\u0947\u0917\u093e": 5316,
  "hi": 5317,
  "\u2581drop": 5318,
  "\u2581keeps": 5319,
  "\u2581\u0928\u0941\u0915\u093c\u0938\u093e\u0928": 5320,
  "ha": 5321,
  "\u2581Under": 5322,
  "\u2581contacts": 5323,
  "\u2581demonstrate": 5324,
  "\u2581preview": 5325,
  "\u2581thank": 5326,
  "\u2581\u0916\u0924\u0930\u0947": 5327,
  "\u2581\u091c\u092f": 5328,
  "\u2581\u0921\u093e\u0932\u094b": 5329,
  "\u2581\u0924\u0915\u0932\u0940\u092b\u094b\u0902": 5330,
  "Lord": 5331,
  "\u2581YOU": 5332,
  "\u2581beast": 5333,
  "\u2581believes": 5334,
  "\u2581glorious": 5335,
  "\u2581height": 5336,
  "\u2581\u0921\u0947\u0938\u094d\u0915\u091f\u0949\u092a": 5337,
  "BA": 5338,
  "\u2581Command": 5339,
  "\u2581Pacific": 5340,
  "\u2581rules": 5341,
  "\u2581superior": 5342,
  "\u2581\u0916\u094b\u0932\u0928\u0947": 5343,
  "\u2581\u0935\u0948\u0938": 5344,
  "ge": 5345,
  "\u2581carrying": 5346,
  "\u2581charity": 5347,
  "\u2581stress": 5348,
  "\u2581\u092e\u0902\u091c\u093c\u0942\u0930": 5349,
  "\u2581\u0938\u0947\u0939\u0924": 5350,
  "time": 5351,
  "\u2581Dad": 5352,
  "\u2581afflicted": 5353,
  "\u2581discussion": 5354,
  "\u2581\u0917\u093e\u0921\u093c\u0940": 5355,
  "\u090f\u0932": 5356,
  "\u2581Exalted": 5357,
  "\u2581abuse": 5358,
  "\u2581beauty": 5359,
  "\u2581\u0911\u0921\u093f\u092f\u094b": 5360,
  "\u2581\u0928\u0917\u0930\u094b\u0902": 5361,
  "\u092a\u0940": 5362,
  "\u2581circuit": 5363,
  "\u2581cometh": 5364,
  "\u2581\u092a\u0941\u0930\u093e\u0928\u0940": 5365,
  "\u2581\u092d\u093e\u0930\u0924": 5366,
  "\u2581\u0936\u0940\u0930\u094d\u0937\u093f\u0915\u093e": 5367,
  "ta": 5368,
  "\u2581effects": 5369,
  "\u2581numbers": 5370,
  "\u2581\u0905\u0935\u0938\u094d\u0925\u093e": 5371,
  "\u2581\u0906\u091c\u093c\u092e\u093e\u0907\u0936": 5372,
  "\u2581center": 5373,
  "\u2581haply": 5374,
  "\u2581listed": 5375,
  "\u2581reminded": 5376,
  "\u2581\u0936\u093e": 5377,
  "ER": 5378,
  "forgiving": 5379,
  "\u0915\u094b\u0908": 5380,
  "\u2581Eden": 5381,
  "\u2581Family": 5382,
  "\u2581track": 5383,
  "\u2581treated": 5384,
  "\u2581\u0915\u0941": 5385,
  "\u2581Click": 5386,
  "\u2581Ha": 5387,
  "\u2581Web": 5388,
  "\u2581\u091a\u0932\u093e\u0928\u0947": 5389,
  "\u2581\u091a\u093e\u0939\u094b": 5390,
  "\u2581\u0939\u092e\u0932\u093e": 5391,
  "\u2581entertainment": 5392,
  "\u2581whenever": 5393,
  "\u2581\u0909\u092a\u0938\u094d\u0925\u093f\u0924\u093f": 5394,
  "\u2581\u091c\u093e\u090f\u0901\u0917\u0940": 5395,
  "\u2581\u092e\u0939\u0940\u0928\u094b\u0902": 5396,
  "age": 5397,
  "\u0909\u0938\u0915\u093e": 5398,
  "\u2581Brooklyn": 5399,
  "\u2581Finally": 5400,
  "\u2581Jonah": 5401,
  "\u2581broke": 5402,
  "\u2581trained": 5403,
  "\u2581\u0909\u0920\u093e\u0915\u0930": 5404,
  "\u2581\u092c\u094b\u0932\u093e": 5405,
  "\u2581Calendar": 5406,
  "\u2581History": 5407,
  "\u2581miracles": 5408,
  "\u2581\u091a\u093e\u0924\u093e\u092a": 5409,
  "\u2581\u0928\u092f\u0947": 5410,
  "responsibilities": 5411,
  "\u2581IMAP": 5412,
  "\u2581Were": 5413,
  "\u2581appearance": 5414,
  "\u2581proclaim": 5415,
  "\u2581resist": 5416,
  "\u2581settings": 5417,
  "\u2581Mail": 5418,
  "\u2581affair": 5419,
  "\u2581contribute": 5420,
  "\u2581immoral": 5421,
  "\u2581useful": 5422,
  "\u2581{0}": 5423,
  "\u2581\u0926\u0930\u094d\u091c\u0947": 5424,
  "\u2581\u0939\u093e\u0902": 5425,
  "X": 5426,
  "\u2581Matt": 5427,
  "\u2581\u092a\u093e\u0915\u0930": 5428,
  "\u2581\u092c\u0930\u0938\u093e\u0924": 5429,
  "\u2581\u0936\u0924\u094d\u0930\u0941\u0913\u0902": 5430,
  "other": 5431,
  "\u2581accord": 5432,
  "\u2581ships": 5433,
  "ma": 5434,
  "ted": 5435,
  "\u2581Aware": 5436,
  "\u2581angry": 5437,
  "\u2581items": 5438,
  "\u2581ought": 5439,
  "\u2581\u0926\u094c\u0930": 5440,
  "\u2581\u0928\u093f\u0937\u094d\u0915\u094d\u0930\u093f\u092f": 5441,
  "\u2581\u092a\u0922\u093c\u0928\u093e": 5442,
  "\u2581\u092b\u093f\u0932\u093f\u092a\u094d\u092a\u093f\u092f\u094b\u0902": 5443,
  "\u2581\u092d\u0930\u0947\u0902": 5444,
  "line": 5445,
  "mi": 5446,
  "\u2581enabled": 5447,
  "\u2581green": 5448,
  "\u2581shared": 5449,
  "\u2581standard": 5450,
  "\u2581\u0936\u0924\u093e\u092c\u094d\u0926\u0940": 5451,
  "but": 5452,
  "www": 5453,
  "\u2581Best": 5454,
  "\u2581surface": 5455,
  "\u2581\u0905\u0928\u094d\u092f\u093e\u092f": 5456,
  "\u2581\u0916\u0930\u093e\u092c": 5457,
  "\u2581\u092a\u094d\u0930\u0938\u0928\u094d": 5458,
  "\u2581\u092b\u093f\u0930\u0926\u094c\u0938": 5459,
  "\u2581\u0939\u091f\u093e\u090f\u0901": 5460,
  "\u2581Galatians": 5461,
  "\u2581Jordan": 5462,
  "\u2581additional": 5463,
  "\u2581difference": 5464,
  "\u2581react": 5465,
  "\u2581vast": 5466,
  "\u2581wrongdoing": 5467,
  "\u2581\u090f\u0915\u0926\u092e": 5468,
  "\u2581Number": 5469,
  "\u2581tabernacle": 5470,
  "\u2581\u0915\u093e\u092c\u093f\u0932": 5471,
  "\u2581\u0924\u0930\u0915\u094d\u0915\u0940": 5472,
  "\u2581\u092a\u094d\u0930\u093e\u0923\u0940": 5473,
  "\u2581\u092c\u0932\u093f": 5474,
  "\u2581\u0936\u093f\u0915\u094d\u0937\u0915": 5475,
  "ak": 5476,
  "\u258126.": 5477,
  "\u2581secular": 5478,
  "\u2581younger": 5479,
  "\u2581\u0916\u0942\u092c\u0938\u0942\u0930\u0924": 5480,
  "\u2581\u091b\u093e\u092f\u093e": 5481,
  "\u2581\u0926\u0943\u0937\u094d\u091f\u093e\u0902\u0924": 5482,
  "\u2581American": 5483,
  "\u2581Files": 5484,
  "\u2581rebellion": 5485,
  "\u2581song": 5486,
  "\u2581spake": 5487,
  "\u2581worshipped": 5488,
  "\u2581\u0907\u0938\u0940\u0932\u093f\u090f": 5489,
  "\u2581\u0909\u0928\u094d": 5490,
  "\u2581\u0916\u094d\u0935\u093e\u0939\u093f\u0936": 5491,
  "\u2581\u0928\u093f\u0936\u093e\u0928": 5492,
  "\u2581\u092e\u093e\u092b\u093c": 5493,
  "\u2581\u0935\u094d\u092f\u093e\u092a\u093e\u0930": 5494,
  "\u2581\u0938\u093e\u0917\u0930": 5495,
  "\u2581\u0938\u094d\u0925\u093e\u092f\u0940": 5496,
  "7": 5497,
  "\u2581??": 5498,
  "\u2581Philistines": 5499,
  "\u2581cloud": 5500,
  "\u2581lower": 5501,
  "\u2581oaths": 5502,
  "\u2581survive": 5503,
  "\u2581\u0916\u093e\u0924\u093f\u0930": 5504,
  "\u2581\u0926\u0938\u094d\u0924\u093e\u0935\u0947\u091c": 5505,
  "\u2581Earth": 5506,
  "\u2581connect": 5507,
  "\u2581fixed": 5508,
  "\u2581mark": 5509,
  "\u2581newspaper": 5510,
  "\u2581prophecies": 5511,
  "\u2581replace": 5512,
  "\u2581\u091c\u0935\u093e\u0928\u094b\u0902": 5513,
  "\u2581\u0921\u0930\u093e": 5514,
  "\u2581German": 5515,
  "\u2581believer": 5516,
  "\u2581fled": 5517,
  "\u2581outstanding": 5518,
  "\u2581sorry": 5519,
  "\u2581\u0905\u091f\u0932": 5520,
  "\u2581\u0909\u0920\u093e\u0928\u093e": 5521,
  "\u2581\u092b\u0942\u0932": 5522,
  "\u2581\u092e\u0941\u0916": 5523,
  "\u2581Server": 5524,
  "\u2581\u0935\u093e\u0938\u094d\u0924\u0935\u093f\u0915": 5525,
  "\u093f\u0936": 5526,
  "\u2581Deuteronomy": 5527,
  "\u2581attain": 5528,
  "\u2581provisions": 5529,
  "\u0916\u0941\u0926\u093e": 5530,
  "\u258133.": 5531,
  "\u2581Internet": 5532,
  "\u2581balance": 5533,
  "\u2581ordained": 5534,
  "\u2581session": 5535,
  "\u2581writer": 5536,
  "\u2581\u0905\u0915\u094d\u0937\u0930": 5537,
  "\u2581\u0907\u0924\u093e": 5538,
  "\u2581\u0924\u0938\u094d\u0935\u0940\u0930": 5539,
  "\u2581\u0928\u093f\u092f\u0902\u0924\u094d\u0930\u0923": 5540,
  "\u2581\u092a\u0930\u0947\u0936\u093e\u0928": 5541,
  "\u2581d": 5542,
  "\u2581dark": 5543,
  "\u2581listened": 5544,
  "\u2581refuse": 5545,
  "\u2581\u0939\u091f": 5546,
  "et": 5547,
  "\u0926\u093e": 5548,
  "\u0938\u094d": 5549,
  "\u2581Call": 5550,
  "\u2581finished": 5551,
  "\u2581\u0915\u0930\u0924\u0942\u0924": 5552,
  "\u0902\u091f": 5553,
  "\u258127.": 5554,
  "\u258180": 5555,
  "\u2581communication": 5556,
  "\u2581responded": 5557,
  "\u2581rulers": 5558,
  "\u2581tasks": 5559,
  "\u2581\u0938\u0930\u094d\u0935\u0926\u093e": 5560,
  "\u092a\u0942\u0930\u094d\u0923": 5561,
  "\u2581\u0918\u091f": 5562,
  "\u2581\u092a\u093f\u0924\u093e\u0913\u0902": 5563,
  "\u2581\u092b\u0948\u0932\u093e": 5564,
  "pe": 5565,
  "\u258148": 5566,
  "\u2581discussed": 5567,
  "\u2581corrupt": 5568,
  "\u2581judges": 5569,
  "\u2581notice": 5570,
  "\u2581\u091c\u0940\u0928\u093e": 5571,
  "ating": 5572,
  "\u2581Furthermore": 5573,
  "\u2581describe": 5574,
  "\u2581\u0906\u0927\u0941\u0928\u093f\u0915": 5575,
  "\u2581\u0926\u092e": 5576,
  "\u2581\u092c\u0924\u093e\u0913": 5577,
  "this": 5578,
  "\u0909": 5579,
  "\u2581Garden": 5580,
  "\u2581\u0909\u0924\u0930": 5581,
  "\u2581\u091d\u0941\u0902\u0921": 5582,
  "\u2581\u0924\u0941\u0930\u0902\u0924": 5583,
  "\u2581\u092b\u093f\u0930\u0924\u0947": 5584,
  "\u2581\u092c\u0922\u093c\u0928\u0947": 5585,
  "\u2581\u092c\u093e\u0939\u0930\u0940": 5586,
  "\u2581\u0930\u0916\u0915\u0930": 5587,
  "\u2581Except": 5588,
  "\u2581Think": 5589,
  "\u2581witnessing": 5590,
  "\u2581\u091c\u094d\u092f\u093e\u0926\u0924": 5591,
  "\u2581\u092c\u093f\u091c\u0932\u0940": 5592,
  "\u2581\u092e\u0928\u092a\u0938\u0902\u0926": 5593,
  "\u2581applied": 5594,
  "\u2581\u0916\u094b\u0932\u0915\u0930": 5595,
  "\u2581\u092d\u0917\u0935\u093e\u0928": 5596,
  "\u2581\u0938\u092e\u094d\u092e\u0947\u0932\u0928": 5597,
  "\u2581Said": 5598,
  "\u2581wherever": 5599,
  "\u2581\u092a\u093e\u0901\u0935": 5600,
  "ka": 5601,
  "\u092a\u0948\u0917\u093c\u092e\u094d\u092c\u0930": 5602,
  "\u2581Editor": 5603,
  "\u2581cost": 5604,
  "\u2581decreed": 5605,
  "\u2581feared": 5606,
  "\u0939\u092e\u0928\u0947": 5607,
  "\u2581satisfaction": 5608,
  "\u2581worlds": 5609,
  "\u2581\u0915\u094b\u0921": 5610,
  "\u2581\u091c\u094b\u0921\u093c\u0928\u0947": 5611,
  "\u2581helpful": 5612,
  "\u2581indicate": 5613,
  "\u2581tender": 5614,
  "\u2581\u0926\u0932\u0940\u0932": 5615,
  "\u2581\u0926\u093f\u0932\u093e\u092f\u093e": 5616,
  "\u2581\u092a\u0930\u0940\u0915\u094d\u0937\u093e\u0913\u0902": 5617,
  "\u2581\u092c\u0930\u092c\u093e\u0926": 5618,
  "\u2581Likewise": 5619,
  "\u2581\u0905\u092a\u0947\u0915\u094d\u0937\u093e": 5620,
  "Jesus": 5621,
  "\u2581cease": 5622,
  "\u2581international": 5623,
  "\u2581\u091f\u093e\u0932": 5624,
  "\u2581\u092d\u093f\u0928\u094d": 5625,
  "\u2581oath": 5626,
  "\u2581shame": 5627,
  "\u2581wars": 5628,
  "\u2581\u0915\u0932\u0940\u0938\u093f\u092f\u093e\u0913\u0902": 5629,
  "\u2581\u0928\u093f\u0930\u093e\u0936\u093e": 5630,
  "\u2581\u092a\u0921\u093c\u0928\u0947": 5631,
  "\u091f\u0940": 5632,
  "\u2581Thy": 5633,
  "\u2581advance": 5634,
  "\u2581burned": 5635,
  "\u2581garments": 5636,
  "\u2581hardship": 5637,
  "\u2581sinned": 5638,
  "\u2581sitting": 5639,
  "\u2581target": 5640,
  "\u0917\u094b\u092f\u093e": 5641,
  "\u091c\u093e": 5642,
  "\u0935\u093f": 5643,
  "\u2581Both": 5644,
  "\u2581TRANS": 5645,
  "\u2581\u0926\u093e\u0939\u093f\u0928\u0947": 5646,
  "\u2581\u092a\u093e\u090f\u0901": 5647,
  "\u2581\u092d\u0941\u0932\u093e": 5648,
  "\u2581\u0938\u092e\u091d\u093e\u0928\u0947": 5649,
  "Is": 5650,
  "\u0907\u0928": 5651,
  "\u0926\u094b": 5652,
  "\u2581caring": 5653,
  "\u2581grievous": 5654,
  "\u2581\u092a\u0930\u0935\u0930\u093f\u0936": 5655,
  "\u2581\u092a\u094d\u0930\u0938\u0928\u094d\u0928": 5656,
  "\u2581\u092e\u093f\u091f": 5657,
  "\u2581\u0932\u093e\u0924\u093e": 5658,
  "\u2581\u0938\u094b\u0928\u093e": 5659,
  "\u2581sickness": 5660,
  "\u2581\u0905\u0915\u094d\u0937\u0930\u094b\u0902": 5661,
  "\u2581\u0916\u0924\u0930\u0928\u093e\u0915": 5662,
  "\u2581\u091a\u0932\u0947\u0902": 5663,
  "\u2581\u0926\u093f\u0916\u093e\u092f\u0947\u0902": 5664,
  "\u2581\u0938\u092c\u0915\u0941\u091b": 5665,
  "\u2581scriptures": 5666,
  "\u2581united": 5667,
  "\u2581utter": 5668,
  "\u0939\u0948": 5669,
  "\u2581Mr": 5670,
  "\u2581cup": 5671,
  "\u2581reckoning": 5672,
  "\u2581theme": 5673,
  "\u2581\u090f\u0932\u093f\u092f\u094d\u092f\u093e\u0939": 5674,
  "\u2581\u091f\u093e\u0935\u0930": 5675,
  "\u2581Shall": 5676,
  "\u2581dealing": 5677,
  "\u2581device": 5678,
  "\u2581\u0907\u092c\u0930\u0924": 5679,
  "\u2581\u0909\u092e\u094d\u092e\u0924": 5680,
  "\u2581\u0915\u093e\u092b\u093f\u0930": 5681,
  "\u2581\u091a\u0947\u0932\u093e": 5682,
  "\u2581\u091c\u0949\u0928": 5683,
  "\u2581\u092e\u094c\u091c\u093f\u091c\u093c\u0947": 5684,
  "\u2581\u0938\u0930\u0940\u0939": 5685,
  "\u2581\u0938\u0935\u093e\u092c": 5686,
  "will": 5687,
  "\u092c\u0939\u0941\u0924": 5688,
  "\u2581Answer": 5689,
  "\u2581Know": 5690,
  "\u2581anxiety": 5691,
  "\u2581princes": 5692,
  "\u2581views": 5693,
  "\u2581writes": 5694,
  "\u2581\u090f\u0939\u0915\u093e\u092e": 5695,
  "\u2581\u091a\u0942\u0901\u0915\u093f": 5696,
  "\u2581\u0920\u0939\u0930\u093e\u0924\u0947": 5697,
  "\u2581\u0928\u093f\u092f\u0941\u0915\u094d\u0924": 5698,
  "\u2581\u092f\u0941\u0915\u094d\u0924\u093f": 5699,
  "\u2581Up": 5700,
  "\u2581factors": 5701,
  "\u2581\u0908\u0936\u094d\u0935\u0930": 5702,
  "\u2581\u0916\u093c\u0948\u0930": 5703,
  "\u2581\u092c\u091a\u092a\u0928": 5704,
  "\u2581\u0938\u092e\u091d\u094b": 5705,
  "\u2581Settings": 5706,
  "\u2581arise": 5707,
  "\u2581indicated": 5708,
  "\u2581\u0916\u0924": 5709,
  "\u2581\u092a\u0941\u0937\u094d\u091f\u093f": 5710,
  "\u2581\u092e\u093e\u0924\u094d\u0930\u093e": 5711,
  "\u2581Am": 5712,
  "\u2581Upon": 5713,
  "\u2581Version": 5714,
  "\u2581fruitage": 5715,
  "\u2581arrogant": 5716,
  "\u2581rely": 5717,
  "\u2581\u0907\u0938\u0930\u093e\u090f\u0932\u093f\u092f\u094b\u0902": 5718,
  "\u2581\u0907\u0938\u094d\u0932\u093e\u092e": 5719,
  "\u2581\u0915\u0947\u0921\u0940\u0908": 5720,
  "\u2581\u092e\u093e\u0930\u0928\u0947": 5721,
  "\u2581\u0938\u0930\u0932": 5722,
  "0": 5723,
  "New": 5724,
  "\u2581treasures": 5725,
  "\u2581warnings": 5726,
  "\u2581\u0938\u094d\u0935\u091a\u093e\u0932\u093f\u0924": 5727,
  "\u0915\u094d\u092f\u094b\u0902": 5728,
  "\u092d": 5729,
  "\u2581Stop": 5730,
  "\u2581contents": 5731,
  "\u2581hundreds": 5732,
  "\u2581rebellious": 5733,
  "\u2581teaches": 5734,
  "\u2581\u0915\u093c\u0926\u0930": 5735,
  "\u2581\u092e\u0939\u093e\u092f\u093e\u091c\u0915": 5736,
  "\u2581Exodus": 5737,
  "\u2581Hav": 5738,
  "\u2581calamity": 5739,
  "\u2581describes": 5740,
  "\u2581manager": 5741,
  "\u2581unknown": 5742,
  "\u2581\u0915\u0943\u0924\u091c\u094d\u091e\u0924\u093e": 5743,
  "\u2581\u0926\u0942\u0930\u0940": 5744,
  "\u2581\u0938\u092b\u093c\u0930": 5745,
  "\u2581\u0938\u0941\u0928\u093e\u0908": 5746,
  "J": 5747,
  "\u2581<": 5748,
  "\u2581Baal": 5749,
  "\u2581Mother": 5750,
  "\u2581bond": 5751,
  "\u2581freely": 5752,
  "\u2581release": 5753,
  "\u2581\u0915\u0930\u0942\u0901\u0917\u093e": 5754,
  "ci": 5755,
  "\u090f\u0938": 5756,
  "\u0924\u094c\u0930": 5757,
  "\u0938\u093e\u092b\u093c": 5758,
  "\u2581differ": 5759,
  "\u2581forms": 5760,
  "\u2581\u092a\u093e\u0902\u091a": 5761,
  "\u2581\u092e\u0939\u092b\u0942\u091c\u093c": 5762,
  "\u2581\u0932\u093f\u0916\u0947\u0902": 5763,
  "da": 5764,
  "\u0905\u091a\u094d\u091b\u0947": 5765,
  "\u2581Ibrahim": 5766,
  "\u2581twice": 5767,
  "\u2581wage": 5768,
  "\u2581\u0905\u0917\u0932\u0940": 5769,
  "\u2581\u0905\u092c\u094d\u0930\u093e\u0939\u092e": 5770,
  "\u2581\u092a\u0943\u0937\u094d\u0920\u092d\u0942\u092e\u093f": 5771,
  "\u2581\u092a\u094d\u0930\u0938\u094d\u0924\u0941\u0924": 5772,
  "\u2581\u092c\u0947\u0915\u093e\u0930": 5773,
  "\u2581\u0939\u0915": 5774,
  "\u094d\u0921": 5775,
  "\u2581(2)": 5776,
  "\u2581Questions": 5777,
  "\u2581remaining": 5778,
  "\u2581\u092a\u094d\u0930\u093e\u0930\u094d\u0925\u0928\u093e\u0913\u0902": 5779,
  "\u2581cold": 5780,
  "\u2581perceive": 5781,
  "\u2581\u0915\u0947\u0902\u0926\u094d\u0930": 5782,
  "\u2581\u0927\u094b\u0916\u0947": 5783,
  "\u2581constantly": 5784,
  "\u2581zealous": 5785,
  "\u092e\u0941\u0936\u0930\u0947\u0915\u0940\u0928": 5786,
  "\u2581rewarded": 5787,
  "\u2581twelve": 5788,
  "\u2581\u0932\u0947\u0924\u0940": 5789,
  "\u2581\u0935\u093f\u092a\u0930\u0940\u0924": 5790,
  "Compare": 5791,
  "LAT": 5792,
  "\u2581pious": 5793,
  "\u2581sides": 5794,
  "\u2581sorrow": 5795,
  "\u2581willingly": 5796,
  "\u2581\u0906\u0930\u092e\u094d\u092d": 5797,
  "\u2581\u0911\u092b\u093c\u0932\u093e\u0907\u0928": 5798,
  "\u2581\u0918\u0921\u093c": 5799,
  "\u2581\u091a\u0942\u0930": 5800,
  "\u2581\u0938\u0930\u0926\u093e\u0930": 5801,
  "ite": 5802,
  "vi": 5803,
  "\u2581De": 5804,
  "\u2581\u092e\u0923\u094d\u0921\u0932\u0940": 5805,
  "\u2581\u0938\u0928\u094d\u0926\u0947\u0939": 5806,
  "\u258128,": 5807,
  "\u258155": 5808,
  "\u2581French": 5809,
  "\u2581adultery": 5810,
  "\u2581cell": 5811,
  "\u2581herself": 5812,
  "\u2581island": 5813,
  "\u2581series": 5814,
  "\u2581\u0921\u0940\u0935\u0940\u0921\u0940": 5815,
  "\u2581\u092c\u0928\u093e\u092f\u0940": 5816,
  "\u2581\u25c6": 5817,
  "\u2581affliction": 5818,
  "\u2581dealings": 5819,
  "\u2581hot": 5820,
  "\u2581\u092a\u094d\u0930\u0940\u0924\u093f": 5821,
  "\u2581accomplished": 5822,
  "\u2581assured": 5823,
  "\u2581beneficial": 5824,
  "\u2581directly": 5825,
  "\u2581publication": 5826,
  "\u2581\u0915\u094d\u0932\u093e\u0938": 5827,
  "\u2581\u0930\u094b": 5828,
  "\u258130.": 5829,
  "\u2581NHT": 5830,
  "\u2581\u091c\u093e\u0917\u0924\u0947": 5831,
  "\u2581Islam": 5832,
  "\u2581ended": 5833,
  "\u2581foundation": 5834,
  "\u2581skin": 5835,
  "\u2581\u0906\u090f\u0901\u0917\u0947": 5836,
  "\u2581\u0924\u0932\u093e\u0915\u093c": 5837,
  "\u2581\u0926\u093e\u0916\u092e\u0927\u0941": 5838,
  "\u2581\u092d\u0942\u0916": 5839,
  "\u2581\u092e\u093e\u0928\u0947": 5840,
  "\u2581\u0930\u094b\u091c\u093c\u0947": 5841,
  "ho": 5842,
  "ize": 5843,
  "\u2581Land": 5844,
  "\u2581Oft": 5845,
  "\u2581encounter": 5846,
  "\u2581otherwise": 5847,
  "\u2581\u0905\u0928\u0941\u0936\u093e\u0938\u0928": 5848,
  "\u2581\u0915\u0941\u0930\u093e\u0928": 5849,
  "\u2581\u0920\u094b\u0915\u0930": 5850,
  "\u2581\u0939\u092e\u092a\u0930": 5851,
  "Your": 5852,
  "sh": 5853,
  "\u092f\u0940": 5854,
  "\u258135.": 5855,
  "\u2581causing": 5856,
  "\u2581clothing": 5857,
  "\u2581innocent": 5858,
  "\u2581religions": 5859,
  "\u2581slow": 5860,
  "\u2581ungrateful": 5861,
  "\u2581\u0926\u0940\u0935\u093e\u0930": 5862,
  "\u2581Ex": 5863,
  "\u2581breasts": 5864,
  "\u2581closely": 5865,
  "\u2581lips": 5866,
  "\u2581quoted": 5867,
  "\u2581\u0916\u0941\u0932\u094d\u0932\u092e": 5868,
  "\u092e\u0928": 5869,
  "\u0938\u094d\u091f": 5870,
  "\u0938\u094d\u0924": 5871,
  "\u2581State": 5872,
  "\u2581require": 5873,
  "\u2581stopped": 5874,
  "\u2581\u0907\u092c\u094d": 5875,
  "\u2581\u0917\u093f\u0930\u092b\u094d\u0924\u093e\u0930": 5876,
  "\u2581\u091c\u094d\u092f\u094b\u0924\u093f": 5877,
  "\u2581\u091d\u0917\u0921\u093c\u093e": 5878,
  "\u2581\u092a\u093e\u0908": 5879,
  "\u2581\u092c\u0947\u091f\u093f\u092f\u093e\u0901": 5880,
  "ru": 5881,
  "we": 5882,
  "\u258123,": 5883,
  "\u2581fourth": 5884,
  "\u2581\u0905\u0928\u094d\u091c\u093e\u092e": 5885,
  "\u2581\u091c\u093e\u090f\u0901\u0917\u0947\u0902": 5886,
  "\u2581\u091f\u094d\u0930\u0948\u0915": 5887,
  "\u2581exactly": 5888,
  "\u2581mature": 5889,
  "\u2581promote": 5890,
  "\u2581prophetic": 5891,
  "\u2581struggle": 5892,
  "\u2581\u090f\u0915\u094d\u0938": 5893,
  "\u2581\u091a\u0902\u0917\u093e": 5894,
  "\u2581\u092a\u094d\u0930\u0924\u093f\u092b\u0932": 5895,
  "\u2581constant": 5896,
  "\u2581south": 5897,
  "\u2581\u0917\u0941\u0928\u093e\u0939\u0917\u093e\u0930": 5898,
  "\u2581\u091c\u0941\u0921\u093c\u0947": 5899,
  "\u2581\u0928\u093f\u092e\u094d\u0928": 5900,
  "\u2581\u0938\u092d\u094b\u092a\u0926\u0947\u0936\u0915": 5901,
  "\u0906\u091c": 5902,
  "\u2581grown": 5903,
  "\u2581speed": 5904,
  "\u2581spring": 5905,
  "\u2581staff": 5906,
  "\u2581\u091c\u091c\u093c\u093e": 5907,
  "\u2581\u0935\u0949\u091a": 5908,
  "\u2581\u0938\u093f\u0916\u093e": 5909,
  "*": 5910,
  "\u2581Ps": 5911,
  "\u2581essential": 5912,
  "\u2581forced": 5913,
  "\u2581total": 5914,
  "\u2581\u0905\u0926\u094d": 5915,
  "\u2581\u0909\u0932\u094d\u0932\u0902\u0918\u0928": 5916,
  "\u2581\u0938\u0926\u093f\u092f\u094b\u0902": 5917,
  "\u2581decades": 5918,
  "\u2581fornication": 5919,
  "\u2581marked": 5920,
  "\u2581undeserved": 5921,
  "\u2581\u0909\u0921\u093c\u093e": 5922,
  "\u2581\u091c\u0940\u0924\u0947": 5923,
  "\u0928\u0947\u0935\u093e\u0932\u0940": 5924,
  "\u2581BE": 5925,
  "\u2581chance": 5926,
  "\u2581v": 5927,
  "\u2581\u0916\u093e\u090f": 5928,
  "\u2581\u092a\u0939\u093e\u0921\u093c\u0940": 5929,
  "\u2581\u0938\u0930\u0926\u093e\u0930\u094b\u0902": 5930,
  "\u2581Jonathan": 5931,
  "\u2581compared": 5932,
  "\u2581neighbors": 5933,
  "\u2581studied": 5934,
  "\u2581woe": 5935,
  "\u2581\u0915\u093e\u092c\u093f\u0932\u0940\u092f\u0924": 5936,
  "\u2581\u092a\u0930\u0939\u0947\u091c\u093c\u0917\u093e\u0930\u0940": 5937,
  "\u2581\u0938\u0939\u0947\u091c": 5938,
  "\u2581Recall": 5939,
  "\u2581girls": 5940,
  "\u2581\u091c\u093e\u092f\u093e": 5941,
  "\u2581\u092a\u0948\u0930": 5942,
  "\u2581happens": 5943,
  "\u2581partner": 5944,
  "\u2581reveals": 5945,
  "\u2581slay": 5946,
  "\u2581April": 5947,
  "\u2581Tract": 5948,
  "\u2581grave": 5949,
  "\u2581subjected": 5950,
  "\u2581\u0938\u0940\u0916\u0928\u093e": 5951,
  "\u2581\u0968\u096e": 5952,
  "land": 5953,
  "\u2581honest": 5954,
  "\u2581palm": 5955,
  "\u2581testify": 5956,
  "\u2581\u091a\u093e\u0901\u0926": 5957,
  "\u2581\u091c\u0935\u093e\u0928\u0940": 5958,
  "\u2581\u092a\u0922\u093c\u0940": 5959,
  "\u2581\u092a\u094d\u0930\u0936\u093e\u0902\u0924": 5960,
  "\u2581\u0930\u094b\u0915\u0928\u0947": 5961,
  "\u2581\u0969\u0966": 5962,
  "\u2581Hezekiah": 5963,
  "\u2581\u090f\u0935\u0902": 5964,
  "\u2581\u091a\u0932\u0924\u0940": 5965,
  "\u2581\u092e\u0939\u093f\u0932\u093e": 5966,
  "\u2581\u092f\u0939\u0947\u091c\u0915\u0947\u0932": 5967,
  "\u2581Change": 5968,
  "\u2581Print": 5969,
  "\u2581argument": 5970,
  "\u2581aspects": 5971,
  "\u2581easier": 5972,
  "\u2581evidently": 5973,
  "\u2581iniquity": 5974,
  "\u2581\u091a\u0930\u0935\u093e\u0939\u0947": 5975,
  "\u2581\u0938\u0902\u0918\u0930\u094d\u0937": 5976,
  "\u2581News": 5977,
  "\u2581distance": 5978,
  "\u2581drew": 5979,
  "\u2581healthy": 5980,
  "\u2581link": 5981,
  "\u2581\u0905\u091c\u094d\u0930": 5982,
  "\u2581\u0915\u0930\u094d\u0924\u093e": 5983,
  "ary": 5984,
  "\u2581devoted": 5985,
  "\u2581invite": 5986,
  "\u2581research": 5987,
  "\u2581\u0916\u093e\u092f\u093e": 5988,
  "\u2581\u0928\u093e\u0939\u0915\u093c": 5989,
  "merciful": 5990,
  "ty": 5991,
  "\u0906\u0917\u093e\u0939": 5992,
  "\u2581(1)": 5993,
  "\u2581ignorant": 5994,
  "\u2581sets": 5995,
  "\u2581\u0905\u0928\u094d\u0926\u0930": 5996,
  "\u2581\u092a\u0938\u0902\u0926\u0940\u0926\u093e": 5997,
  "\u2581arose": 5998,
  "\u2581border": 5999,
  "\u2581desired": 6000,
  "\u2581inner": 6001,
  "\u2581site": 6002,
  "\u2581widow": 6003,
  "\u2581\u0915\u0936\u094d\u0924": 6004,
  "\u2581\u091b\u093f\u092a\u093e\u0924\u0947": 6005,
  "\u2581\u091b\u0940\u0928": 6006,
  "\u2581\u0926\u0930\u0916\u094d\u0924": 6007,
  "\u2581\u092d\u0921\u093c\u0915\u0924": 6008,
  "\u2581\u0935\u093f\u0936\u093f\u0937\u094d\u091f": 6009,
  "\u2581\u0935\u093f\u0938\u094d\u0924\u093e\u0930": 6010,
  "ated": 6011,
  "\u0907": 6012,
  "\u2581guardian": 6013,
  "\u2581refers": 6014,
  "\u2581soldiers": 6015,
  "\u2581\u091b\u0942\u091f": 6016,
  "\u2581\u092d\u093f\u0928\u094d\u0928": 6017,
  "\u2581\u0938\u093f\u0916\u093e\u0924\u0947": 6018,
  "\u2581Service": 6019,
  "\u2581kindly": 6020,
  "\u2581liar": 6021,
  "\u2581\u091c\u093c\u093f\u092e\u094d\u092e\u0947": 6022,
  "\u2581\u092a\u0942\u0930\u094d\u0924\u093f": 6023,
  "\u2581\u092b\u0930\u092e\u093e": 6024,
  "op": 6025,
  "\u2581Sometimes": 6026,
  "\u2581\u092a\u0915\u0921\u093c\u0947": 6027,
  "\u2581\u092b\u093f\u0930\u094c\u0928": 6028,
  "\u2581\u092b\u0948\u0932": 6029,
  "\u2581acted": 6030,
  "\u2581properly": 6031,
  "\u2581\u0915\u0941\u0936\u0932": 6032,
  "\u2581\u0922\u0902\u0917": 6033,
  "\u2581\u092a\u0915\u094d\u0937\u0940": 6034,
  "\u2581audio": 6035,
  "\u2581forbid": 6036,
  "\u2581heat": 6037,
  "\u2581ordered": 6038,
  "\u2581\u092c\u0930\u0938\u093e\u092f\u093e": 6039,
  "\u2581doom": 6040,
  "\u2581impossible": 6041,
  "\u2581\u0916\u091c\u0942\u0930": 6042,
  "ial": 6043,
  "\u258123:": 6044,
  "\u2581boys": 6045,
  "\u2581conclude": 6046,
  "\u2581designed": 6047,
  "\u2581fault": 6048,
  "\u2581illness": 6049,
  "\u2581resolve": 6050,
  "\u2581winds": 6051,
  "\u2581\u091b\u0941\u0921\u093c\u094c\u0924\u0940": 6052,
  "\u2581\u092a\u0924\u0947": 6053,
  "\u2581\u0938\u092d": 6054,
  "ga": 6055,
  "\u2581determine": 6056,
  "\u2581exposed": 6057,
  "\u2581menu": 6058,
  "\u2581poured": 6059,
  "\u2581privileges": 6060,
  "\u2581shut": 6061,
  "\u2581tax": 6062,
  "\u2581\u091a\u091f\u094d\u091f\u093e\u0928": 6063,
  "\u2581\u0924\u0930\u0938": 6064,
  "\u2581\u092a\u094d\u0930\u0915\u093e\u0936\u0928": 6065,
  "\u2581\u092e\u093e\u0924\u094d\u0930": 6066,
  "\u2581\u0932\u093e\u090f\u0901\u0917\u0947": 6067,
  "\u2581\u0938\u094d\u0935\u0924\u0902\u0924\u094d\u0930\u0924\u093e": 6068,
  "\u0909\u0928\u0938\u0947": 6069,
  "\u0920\u0940\u0915": 6070,
  "\u2581towns": 6071,
  "\u2581transgressors": 6072,
  "\u2581\u0905\u0936\u094d": 6073,
  "\u2581\u0915\u093f\u0938\u0928\u0947": 6074,
  "\u2581\u0926\u0930\u0935\u093e\u091c\u093c\u0947": 6075,
  "\u2581\u092e\u094b\u0939\u0932\u0924": 6076,
  "\u0938\u0930": 6077,
  "\u2581'?": 6078,
  "\u2581'{0}'": 6079,
  "\u2581sold": 6080,
  "\u2581\u091c\u0902\u0917\u0932\u0940": 6081,
  "his": 6082,
  "\u2581Master": 6083,
  "\u2581engage": 6084,
  "\u2581faithfully": 6085,
  "\u2581ideas": 6086,
  "\u2581rejoicing": 6087,
  "\u2581scattered": 6088,
  "\u2581seriously": 6089,
  "\u2581\u0915\u0930\u093e": 6090,
  "\u2581\u0915\u093e\u0928\u094b\u0902": 6091,
  "\u2581\u0926\u093e\u0926\u093e\u0913\u0902": 6092,
  "\u2581\u092a\u0930\u093e\u0926\u0940\u0938": 6093,
  "\u2581\u0938\u092e\u0938\u094d\u092f\u093e\u090f\u0901": 6094,
  "\u2581\u0938\u094b\u0938\u093e\u0907\u091f\u0940": 6095,
  "AR": 6096,
  "Peace": 6097,
  "\u2581enable": 6098,
  "\u2581memory": 6099,
[...]
